<pad>	0
<unk>	0
<MASK>	0
<2en>	0
<2af>	0
<2ar>	0
<2bg>	0
<2bn>	0
<2ca>	0
<2cs>	0
<2da>	0
<2de>	0
<2el>	0
<2eo>	0
<2es>	0
<2et>	0
<2eu>	0
<2fa>	0
<2fi>	0
<2fr>	0
<2gl>	0
<2gu>	0
<2he>	0
<2hi>	0
<2hr>	0
<2hu>	0
<2hy>	0
<2id>	0
<2it>	0
<2ja>	0
<2jv>	0
<2ka>	0
<2kk>	0
<2ko>	0
<2ku>	0
<2lt>	0
<2lv>	0
<2ml>	0
<2mr>	0
<2ms>	0
<2mk>	0
<2mn>	0
<2my>	0
<2nl>	0
<2nb>	0
<2pl>	0
<2pt>	0
<2ro>	0
<2ru>	0
<2sk>	0
<2sl>	0
<2sq>	0
<2sr>	0
<2sv>	0
<2sw>	0
<2ta>	0
<2te>	0
<2th>	0
<2tl>	0
<2tr>	0
<2uk>	0
<2ur>	0
<2vi>	0
<2yo>	0
<2zh>	0
▁t	-0
▁a	-1
▁.	-2
in	-3
en	-4
er	-5
▁,	-6
▁s	-7
▁th	-8
on	-9
▁d	-10
es	-11
▁p	-12
▁c	-13
▁m	-14
an	-15
at	-16
▁o	-17
▁the	-18
re	-19
▁i	-20
▁w	-21
▁b	-22
or	-23
▁h	-24
▁l	-25
ar	-26
▁f	-27
is	-28
▁n	-29
it	-30
ou	-31
al	-32
▁e	-33
▁in	-34
ion	-35
ed	-36
▁to	-37
▁de	-38
as	-39
▁an	-40
ro	-41
ent	-42
ic	-43
▁of	-44
ing	-45
▁g	-46
▁v	-47
el	-48
om	-49
un	-50
et	-51
▁and	-52
le	-53
▁y	-54
os	-55
▁k	-56
il	-57
▁'	-58
us	-59
ra	-60
▁re	-61
ch	-62
id	-63
ut	-64
am	-65
ad	-66
em	-67
ol	-68
▁j	-69
▁?	-70
ur	-71
▁you	-72
▁-	-73
ot	-74
▁r	-75
ve	-76
qu	-77
ig	-78
▁un	-79
ct	-80
▁is	-81
▁on	-82
ation	-83
▁be	-84
est	-85
im	-86
▁wh	-87
▁for	-88
▁con	-89
▁that	-90
▁st	-91
▁it	-92
▁al	-93
▁com	-94
ie	-95
ir	-96
▁pro	-97
st	-98
▁en	-99
ul	-100
▁se	-101
▁1	-102
▁la	-103
▁ا	-104
ce	-105
ow	-106
ci	-107
ere	-108
ter	-109
▁п	-110
▁qu	-111
ly	-112
ak	-113
▁as	-114
ver	-115
te	-116
um	-117
ay	-118
▁с	-119
pe	-120
▁we	-121
ri	-122
▁ha	-123
▁ال	-124
▁par	-125
▁ne	-126
ess	-127
and	-128
ta	-129
▁!	-130
od	-131
▁z	-132
▁"	-133
▁at	-134
▁su	-135
▁в	-136
▁me	-137
▁do	-138
▁ch	-139
ik	-140
op	-141
ен	-142
ort	-143
▁)	-144
ld	-145
▁pr	-146
ill	-147
iv	-148
ant	-149
ith	-150
▁this	-151
▁le	-152
ht	-153
ia	-154
▁н	-155
ist	-156
▁(	-157
ст	-158
ag	-159
ment	-160
▁with	-161
▁he	-162
▁eu	-163
ра	-164
▁2	-165
ers	-166
end	-167
▁sh	-168
th	-169
pp	-170
▁di	-171
▁о	-172
la	-173
▁are	-174
▁ex	-175
▁not	-176
ud	-177
▁so	-178
ab	-179
▁и	-180
ich	-181
то	-182
ust	-183
ate	-184
но	-185
▁no	-186
▁was	-187
▁have	-188
▁euro	-189
ould	-190
▁que	-191
▁or	-192
oun	-193
▁д	-194
▁go	-195
se	-196
▁u	-197
▁comm	-198
ell	-199
▁..	-200
▁by	-201
ко	-202
▁im	-203
▁19	-204
▁...	-205
iss	-206
ре	-207
▁el	-208
ff	-209
ive	-210
ore	-211
ро	-212
ies	-213
ac	-214
ity	-215
ight	-216
▁all	-217
▁م	-218
▁ab	-219
▁est	-220
ap	-221
▁:	-222
our	-223
▁ar	-224
ber	-225
iz	-226
der	-227
ans	-228
▁по	-229
▁tr	-230
▁res	-231
ok	-232
го	-233
de	-234
ang	-235
те	-236
rom	-237
og	-238
▁des	-239
▁τ	-240
ни	-241
▁/	-242
▁м	-243
▁ag	-244
ва	-245
if	-246
▁per	-247
▁am	-248
▁ma	-249
ost	-250
▁ad	-251
▁на	-252
▁wor	-253
▁what	-254
▁ب	-255
port	-256
ens	-257
▁can	-258
та	-259
▁te	-260
li	-261
ov	-262
▁som	-263
▁europe	-264
ne	-265
ions	-266
▁et	-267
00	-268
▁inter	-269
ard	-270
all	-271
▁my	-272
to	-273
▁us	-274
▁es	-275
▁sa	-276
ine	-277
▁will	-278
ations	-279
▁ver	-280
ure	-281
▁ac	-282
▁pol	-283
ast	-284
▁there	-285
▁but	-286
ка	-287
ament	-288
oc	-289
ли	-290
▁و	-291
je	-292
▁ra	-293
me	-294
are	-295
▁je	-296
ru	-297
ous	-298
out	-299
▁from	-300
▁part	-301
ри	-302
ib	-303
за	-304
▁which	-305
pr	-306
ени	-307
▁da	-308
▁pre	-309
▁é	-310
pl	-311
▁man	-312
▁has	-313
du	-314
ll	-315
на	-316
ge	-317
ón	-318
ind	-319
▁they	-320
ks	-321
ement	-322
▁er	-323
ij	-324
▁cont	-325
▁na	-326
ны	-327
so	-328
ль	-329
▁coun	-330
▁pe	-331
▁fa	-332
▁199	-333
▁pres	-334
▁em	-335
con	-336
▁reg	-337
▁mar	-338
▁don	-339
ult	-340
ally	-341
▁б	-342
her	-343
for	-344
▁pl	-345
▁del	-346
ue	-347
ke	-348
ци	-349
ission	-350
vel	-351
ah	-352
▁π	-353
▁tak	-354
▁your	-355
▁af	-356
per	-357
▁dis	-358
▁ro	-359
ла	-360
ike	-361
▁;	-362
ong	-363
cial	-364
▁out	-365
ти	-366
bl	-367
ry	-368
▁sp	-369
▁co	-370
ου	-371
во	-372
ain	-373
▁der	-374
▁ser	-375
▁kn	-376
io	-377
▁ε	-378
▁lo	-379
▁po	-380
ien	-381
▁die	-382
▁would	-383
▁right	-384
ary	-385
да	-386
ime	-387
▁tra	-388
▁gr	-389
ction	-390
ese	-391
▁comp	-392
▁3	-393
ung	-394
ice	-395
▁stat	-396
▁α	-397
▁one	-398
gh	-399
ance	-400
ip	-401
ident	-402
ish	-403
ord	-404
▁σ	-405
ão	-406
ire	-407
▁cons	-408
▁au	-409
▁ко	-410
▁ت	-411
▁know	-412
na	-413
▁не	-414
pt	-415
▁κ	-416
▁的	-417
▁up	-418
ال	-419
ier	-420
ven	-421
▁like	-422
▁if	-423
ational	-424
▁her	-425
ass	-426
ka	-427
▁du	-428
▁mr	-429
▁inc	-430
▁fin	-431
ose	-432
▁been	-433
ther	-434
▁أ	-435
ng	-436
▁who	-437
▁european	-438
ле	-439
va	-440
▁،	-441
▁si	-442
ence	-443
one	-444
ck	-445
int	-446
▁about	-447
▁vi	-448
▁how	-449
▁pos	-450
▁ч	-451
ble	-452
▁у	-453
▁den	-454
ear	-455
▁app	-456
▁mem	-457
▁its	-458
▁just	-459
ite	-460
▁il	-461
itt	-462
ces	-463
▁our	-464
▁à	-465
und	-466
▁les	-467
ica	-468
ви	-469
▁ter	-470
ми	-471
ian	-472
cess	-473
▁за	-474
▁ob	-475
▁commission	-476
▁los	-477
▁also	-478
▁ل	-479
än	-480
▁bet	-481
▁dec	-482
ве	-483
ink	-484
form	-485
▁det	-486
▁4	-487
να	-488
▁att	-489
art	-490
▁ف	-491
ame	-492
use	-493
▁their	-494
ло	-495
▁his	-496
▁med	-497
ons	-498
▁act	-499
ade	-500
▁more	-501
ör	-502
▁mu	-503
reat	-504
ca	-505
ción	-506
▁min	-507
ning	-508
és	-509
▁ind	-510
▁gen	-511
▁should	-512
ely	-513
▁tom	-514
▁now	-515
▁get	-516
▁pu	-517
▁ent	-518
▁่	-519
▁со	-520
kt	-521
ob	-522
ical	-523
ть	-524
ки	-525
ide	-526
▁الم	-527
ase	-528
де	-529
ial	-530
▁μ	-531
▁fr	-532
▁dem	-533
▁op	-534
ign	-535
▁count	-536
▁were	-537
är	-538
▁than	-539
▁here	-540
▁5	-541
ية	-542
ram	-543
▁intern	-544
pos	-545
▁ge	-546
ft	-547
▁any	-548
be	-549
▁ра	-550
au	-551
able	-552
▁had	-553
ار	-554
ach	-555
ze	-556
▁20	-557
gan	-558
▁rec	-559
▁br	-560
▁und	-561
ated	-562
ise	-563
▁por	-564
▁work	-565
fer	-566
▁cl	-567
▁а	-568
▁200	-569
▁van	-570
vo	-571
we	-572
gen	-573
▁some	-574
▁over	-575
▁ja	-576
pa	-577
▁mak	-578
ди	-579
▁ass	-580
▁new	-581
▁men	-582
▁про	-583
▁see	-584
ition	-585
▁um	-586
ان	-587
ين	-588
ough	-589
▁spe	-590
▁under	-591
▁str	-592
▁want	-593
ound	-594
ution	-595
▁president	-596
▁need	-597
▁them	-598
▁до	-599
▁prog	-600
▁she	-601
ات	-602
▁conc	-603
▁when	-604
▁did	-605
▁para	-606
▁cr	-607
▁е	-608
eral	-609
ja	-610
velop	-611
ει	-612
ون	-613
ele	-614
ado	-615
▁’	-616
▁time	-617
▁these	-618
get	-619
▁об	-620
tain	-621
ся	-622
age	-623
▁peop	-624
▁mon	-625
▁well	-626
▁other	-627
he	-628
▁him	-629
▁say	-630
▁vo	-631
▁fe	-632
▁che	-633
ple	-634
▁sy	-635
ма	-636
ile	-637
▁mo	-638
▁pa	-639
▁inst	-640
▁om	-641
ree	-642
▁ع	-643
▁year	-644
▁report	-645
ten	-646
▁kom	-647
▁import	-648
▁people	-649
ited	-650
▁come	-651
▁must	-652
ient	-653
αι	-654
▁acc	-655
▁gu	-656
▁ever	-657
ack	-658
ру	-659
▁rel	-660
rat	-661
uss	-662
ors	-663
▁ta	-664
▁las	-665
ada	-666
ced	-667
▁ke	-668
itu	-669
ti	-670
ет	-671
▁polit	-672
▁very	-673
▁من	-674
▁đ	-675
▁develop	-676
ale	-677
vent	-678
▁sec	-679
pport	-680
▁ه	-681
ля	-682
▁fir	-683
▁pers	-684
go	-685
▁off	-686
▁car	-687
ings	-688
▁sch	-689
man	-690
conom	-691
▁sol	-692
ικ	-693
▁let	-694
no	-695
▁trans	-696
▁้	-697
▁го	-698
▁bel	-699
pect	-700
den	-701
▁union	-702
▁г	-703
▁bo	-704
wo	-705
мо	-706
▁think	-707
av	-708
▁hum	-709
▁states	-710
▁eff	-711
▁har	-712
▁una	-713
que	-714
▁aut	-715
ities	-716
ern	-717
ome	-718
▁ap	-719
▁э	-720
az	-721
▁quest	-722
gy	-723
ts	-724
▁good	-725
▁bu	-726
▁د	-727
▁ي	-728
▁ve	-729
ari	-730
▁。	-731
▁only	-732
▁sk	-733
vern	-734
▁sub	-735
▁col	-736
▁се	-737
▁τη	-738
▁في	-739
ep	-740
▁то	-741
▁may	-742
сти	-743
▁het	-744
▁mat	-745
▁dat	-746
▁pri	-747
▁mi	-748
ick	-749
vis	-750
▁א	-751
▁ن	-752
▁пре	-753
▁да	-754
▁dire	-755
▁δ	-756
▁hel	-757
ina	-758
▁nu	-759
▁partic	-760
▁int	-761
ni	-762
cy	-763
▁inv	-764
aj	-765
▁where	-766
▁ה	-767
▁son	-768
▁ка	-769
▁av	-770
ام	-771
ms	-772
ме	-773
▁при	-774
ject	-775
ild	-776
че	-777
ny	-778
ения	-779
▁take	-780
га	-781
ect	-782
hing	-783
▁econom	-784
ug	-785
▁ک	-786
ond	-787
sk	-788
▁от	-789
▁organ	-790
не	-791
ér	-792
ret	-793
▁ir	-794
ma	-795
▁program	-796
ных	-797
▁tod	-798
igh	-799
▁og	-800
▁first	-801
ια	-802
ries	-803
▁human	-804
fore	-805
▁во	-806
▁ho	-807
ual	-808
▁could	-809
▁again	-810
▁ein	-811
▁jo	-812
▁ni	-813
men	-814
cil	-815
oll	-816
ays	-817
▁bl	-818
red	-819
ys	-820
ست	-821
▁sur	-822
icht	-823
ional	-824
ular	-825
▁look	-826
bre	-827
▁6	-828
▁international	-829
cia	-830
res	-831
ible	-832
▁inform	-833
▁к	-834
cause	-835
▁because	-836
▁proble	-837
▁produ	-838
▁every	-839
ict	-840
▁leg	-841
blic	-842
▁into	-843
▁non	-844
rib	-845
▁ele	-846
▁united	-847
▁ph	-848
▁tal	-849
ás	-850
ett	-851
▁sin	-852
min	-853
ph	-854
▁got	-855
▁commit	-856
▁്	-857
ros	-858
ments	-859
ko	-860
ho	-861
до	-862
▁ре	-863
wn	-864
che	-865
ory	-866
▁ik	-867
vi	-868
▁rem	-869
ду	-870
▁sc	-871
▁two	-872
▁för	-873
▁os	-874
▁cu	-875
▁social	-876
τα	-877
си	-878
ures	-879
▁countries	-880
ga	-881
ied	-882
ione	-883
▁make	-884
▁cent	-885
ста	-886
vers	-887
▁why	-888
▁dé	-889
les	-890
▁ל	-891
ene	-892
▁sam	-893
▁world	-894
по	-895
own	-896
ρο	-897
ument	-898
▁т	-899
▁council	-900
▁incl	-901
ider	-902
▁such	-903
▁7	-904
ty	-905
ism	-906
▁diff	-907
▁oh	-908
ved	-909
elf	-910
uk	-911
▁govern	-912
iti	-913
▁add	-914
▁those	-915
▁li	-916
▁gl	-917
▁sm	-918
▁member	-919
ще	-920
▁met	-921
▁way	-922
tee	-923
▁propos	-924
▁fl	-925
را	-926
▁mil	-927
▁–	-928
▁val	-929
liament	-930
▁9	-931
▁form	-932
ific	-933
oup	-934
ress	-935
▁back	-936
▁pla	-937
▁де	-938
▁polic	-939
▁pas	-940
stem	-941
▁parliament	-942
▁pour	-943
land	-944
▁cap	-945
▁tur	-946
▁finan	-947
▁tu	-948
olog	-949
iones	-950
▁201	-951
▁я	-952
ение	-953
▁να	-954
▁мо	-955
its	-956
▁och	-957
πο	-958
▁dur	-959
▁mod	-960
ara	-961
ção	-962
▁then	-963
ции	-964
▁going	-965
up	-966
▁bas	-967
бо	-968
ita	-969
ür	-970
▁commun	-971
хо	-972
▁ме	-973
pres	-974
▁support	-975
▁8	-976
▁ce	-977
щи	-978
▁art	-979
ket	-980
ät	-981
▁important	-982
▁call	-983
▁even	-984
ater	-985
▁resp	-986
ren	-987
▁rights	-988
▁much	-989
za	-990
▁ž	-991
ول	-992
ici	-993
▁pra	-994
▁general	-995
pro	-996
▁after	-997
тель	-998
ember	-999
ها	-1000
▁deb	-1001
▁lu	-1002
ative	-1003
▁dan	-1004
же	-1005
▁το	-1006
ility	-1007
▁cour	-1008
▁most	-1009
▁disc	-1010
els	-1011
▁poss	-1012
ful	-1013
ku	-1014
ato	-1015
idad	-1016
▁conf	-1017
▁made	-1018
▁real	-1019
▁une	-1020
▁что	-1021
▁prov	-1022
▁10	-1023
ств	-1024
urs	-1025
▁الأ	-1026
се	-1027
▁та	-1028
чи	-1029
án	-1030
ives	-1031
▁person	-1032
ai	-1033
▁years	-1034
τε	-1035
▁serv	-1036
als	-1037
▁war	-1038
▁cer	-1039
▁nations	-1040
يد	-1041
bi	-1042
ben	-1043
rit	-1044
▁vis	-1045
hor	-1046
▁das	-1047
▁many	-1048
▁situ	-1049
ados	-1050
ного	-1051
led	-1052
ctor	-1053
row	-1054
▁š	-1055
ante	-1056
ση	-1057
▁resol	-1058
▁我	-1059
xt	-1060
▁cor	-1061
▁vot	-1062
oy	-1063
▁long	-1064
▁και	-1065
▁prin	-1066
▁contin	-1067
▁committee	-1068
▁does	-1069
ont	-1070
▁tem	-1071
ча	-1072
▁mit	-1073
▁pod	-1074
▁ο	-1075
▁development	-1076
▁fund	-1077
zy	-1078
lar	-1079
ween	-1080
ute	-1081
▁between	-1082
▁system	-1083
▁î	-1084
▁الت	-1085
▁const	-1086
▁ins	-1087
▁aw	-1088
par	-1089
ير	-1090
اد	-1091
▁fo	-1092
▁γ	-1093
ía	-1094
▁end	-1095
lear	-1096
val	-1097
▁bud	-1098
iew	-1099
old	-1100
▁num	-1101
lament	-1102
iel	-1103
▁national	-1104
ner	-1105
▁sen	-1106
▁thr	-1107
▁group	-1108
▁ist	-1109
لى	-1110
ange	-1111
▁somet	-1112
▁خ	-1113
▁på	-1114
▁zu	-1115
▁requ	-1116
▁said	-1117
▁ext	-1118
▁een	-1119
ating	-1120
▁dans	-1121
το	-1122
رو	-1123
▁sign	-1124
▁memb	-1125
ices	-1126
▁ca	-1127
emb	-1128
τη	-1129
▁إ	-1130
▁з	-1131
omen	-1132
▁מ	-1133
ek	-1134
ων	-1135
ger	-1136
▁az	-1137
gu	-1138
▁def	-1139
ido	-1140
lo	-1141
▁qui	-1142
ady	-1143
▁great	-1144
ural	-1145
ha	-1146
ank	-1147
▁س	-1148
▁%	-1149
▁consider	-1150
▁economic	-1151
▁through	-1152
μα	-1153
ρα	-1154
▁prote	-1155
▁appro	-1156
ife	-1157
▁iss	-1158
▁sim	-1159
▁tell	-1160
ando	-1161
mi	-1162
су	-1163
▁plan	-1164
pu	-1165
▁те	-1166
lich	-1167
000	-1168
én	-1169
ric	-1170
▁too	-1171
▁ka	-1172
▁sie	-1173
со	-1174
▁wir	-1175
ieve	-1176
▁mor	-1177
▁includ	-1178
ins	-1179
▁ك	-1180
▁od	-1181
▁yes	-1182
ace	-1183
ión	-1184
▁fra	-1185
mer	-1186
amente	-1187
gi	-1188
▁ut	-1189
po	-1190
▁раз	-1191
chen	-1192
▁help	-1193
other	-1194
▁como	-1195
▁being	-1196
ной	-1197
ία	-1198
▁sus	-1199
ght	-1200
elle	-1201
▁έ	-1202
▁؟	-1203
da	-1204
▁্	-1205
лу	-1206
▁18	-1207
▁ح	-1208
ما	-1209
co	-1210
▁down	-1211
ler	-1212
▁hand	-1213
▁ber	-1214
ito	-1215
▁inte	-1216
▁za	-1217
▁ty	-1218
▁put	-1219
▁parlament	-1220
▁kan	-1221
▁particular	-1222
ever	-1223
▁wa	-1224
tä	-1225
ats	-1226
oth	-1227
ba	-1228
hr	-1229
лю	-1230
▁è	-1231
▁из	-1232
▁happ	-1233
ente	-1234
▁public	-1235
▁cam	-1236
▁în	-1237
▁far	-1238
▁ol	-1239
▁point	-1240
▁til	-1241
пе	-1242
ige	-1243
▁inf	-1244
με	-1245
▁ש	-1246
ull	-1247
▁oc	-1248
▁use	-1249
ues	-1250
▁von	-1251
▁の	-1252
▁va	-1253
са	-1254
▁prom	-1255
▁ré	-1256
ana	-1257
▁agre	-1258
▁vol	-1259
ско	-1260
▁ich	-1261
▁organiz	-1262
ody	-1263
era	-1264
▁أن	-1265
ste	-1266
ards	-1267
▁direct	-1268
ски	-1269
сто	-1270
ving	-1271
▁ten	-1272
▁ener	-1273
▁ok	-1274
ры	-1275
ité	-1276
leg	-1277
fic	-1278
cept	-1279
▁last	-1280
ters	-1281
▁mer	-1282
▁voor	-1283
▁ev	-1284
▁ti	-1285
▁europ	-1286
▁dra	-1287
ende	-1288
▁coop	-1289
jo	-1290
▁fact	-1291
▁cas	-1292
iden	-1293
ги	-1294
▁ش	-1295
imin	-1296
▁aff	-1297
▁activ	-1298
▁before	-1299
ít	-1300
▁pop	-1301
▁princi	-1302
▁never	-1303
зо	-1304
жи	-1305
ather	-1306
▁ple	-1307
▁ф	-1308
▁fam	-1309
▁meet	-1310
▁policy	-1311
eng	-1312
▁пред	-1313
▁dr	-1314
▁gra	-1315
▁15	-1316
па	-1317
▁bar	-1318
▁nat	-1319
▁bi	-1320
▁ό	-1321
▁sou	-1322
▁still	-1323
▁fre	-1324
▁бы	-1325
thing	-1326
▁č	-1327
▁against	-1328
ور	-1329
ali	-1330
▁пра	-1331
▁tech	-1332
present	-1333
▁rest	-1334
▁ku	-1335
▁وال	-1336
▁pot	-1337
▁government	-1338
▁pat	-1339
▁ج	-1340
▁12	-1341
▁however	-1342
▁high	-1343
му	-1344
ρι	-1345
▁adop	-1346
▁mill	-1347
▁は	-1348
cer	-1349
ön	-1350
▁вы	-1351
це	-1352
ete	-1353
▁give	-1354
▁nor	-1355
ida	-1356
▁cre	-1357
kan	-1358
lish	-1359
мен	-1360
▁和	-1361
▁dar	-1362
▁same	-1363
ily	-1364
▁sl	-1365
▁something	-1366
att	-1367
nen	-1368
gr	-1369
▁law	-1370
▁า	-1371
▁find	-1372
▁ü	-1373
▁country	-1374
mes	-1375
▁θ	-1376
ili	-1377
▁beh	-1378
▁ב	-1379
ane	-1380
▁uni	-1381
air	-1382
▁decis	-1383
▁ger	-1384
▁ref	-1385
eration	-1386
ку	-1387
▁child	-1388
ala	-1389
ata	-1390
por	-1391
▁это	-1392
▁ko	-1393
ati	-1394
di	-1395
▁ми	-1396
ought	-1397
▁really	-1398
vir	-1399
ves	-1400
▁ask	-1401
▁ق	-1402
ico	-1403
▁mus	-1404
▁var	-1405
▁cur	-1406
жа	-1407
▁information	-1408
ets	-1409
▁ide	-1410
νο	-1411
▁state	-1412
▁nie	-1413
zi	-1414
ds	-1415
▁maj	-1416
τι	-1417
▁dist	-1418
com	-1419
▁care	-1420
▁är	-1421
نا	-1422
lig	-1423
▁own	-1424
ál	-1425
يا	-1426
▁bro	-1427
▁result	-1428
▁thank	-1429
ruct	-1430
pend	-1431
▁represent	-1432
ork	-1433
ama	-1434
ser	-1435
▁του	-1436
▁oper	-1437
▁invest	-1438
▁bir	-1439
▁adopt	-1440
▁ris	-1441
ollow	-1442
▁best	-1443
▁ens	-1444
come	-1445
▁exam	-1446
▁effect	-1447
▁kon	-1448
▁stand	-1449
▁пе	-1450
▁tam	-1451
▁loc	-1452
ista	-1453
ention	-1454
▁process	-1455
mente	-1456
▁place	-1457
▁follow	-1458
▁fut	-1459
ación	-1460
▁present	-1461
▁political	-1462
▁question	-1463
зи	-1464
ря	-1465
ki	-1466
لي	-1467
▁talk	-1468
▁hu	-1469
▁με	-1470
▁wer	-1471
vor	-1472
▁litt	-1473
▁secon	-1474
▁pow	-1475
▁ét	-1476
▁auf	-1477
▁eng	-1478
▁11	-1479
bor	-1480
▁ess	-1481
ня	-1482
▁order	-1483
unt	-1484
ée	-1485
utions	-1486
▁differ	-1487
ates	-1488
ouse	-1489
▁ret	-1490
ande	-1491
▁problem	-1492
▁secret	-1493
ede	-1494
▁little	-1495
▁market	-1496
▁ed	-1497
▁sem	-1498
▁ye	-1499
▁bes	-1500
▁secur	-1501
▁เ	-1502
äl	-1503
▁women	-1504
▁techn	-1505
▁contro	-1506
ral	-1507
act	-1508
iment	-1509
ju	-1510
ем	-1511
▁amer	-1512
ות	-1513
▁pal	-1514
át	-1515
ken	-1516
ements	-1517
plement	-1518
▁incre	-1519
▁believe	-1520
iter	-1521
▁ot	-1522
▁não	-1523
▁today	-1524
▁three	-1525
▁democ	-1526
▁glob	-1527
ath	-1528
ים	-1529
▁respons	-1530
τικ	-1531
▁instit	-1532
ession	-1533
▁bus	-1534
▁respect	-1535
ister	-1536
▁estab	-1537
do	-1538
▁tot	-1539
▁你	-1540
لا	-1541
▁си	-1542
ura	-1543
yt	-1544
▁一	-1545
▁start	-1546
▁concern	-1547
▁在	-1548
ния	-1549
▁life	-1550
▁кон	-1551
ní	-1552
ps	-1553
▁κα	-1554
▁situation	-1555
▁под	-1556
stand	-1557
▁conse	-1558
▁น	-1559
▁till	-1560
▁equ	-1561
ants	-1562
▁kh	-1563
▁ur	-1564
lu	-1565
▁clear	-1566
лен	-1567
ijn	-1568
▁ear	-1569
▁security	-1570
▁han	-1571
ные	-1572
▁ма	-1573
▁both	-1574
hip	-1575
▁εί	-1576
▁neg	-1577
▁für	-1578
ulation	-1579
ini	-1580
▁treat	-1581
▁مي	-1582
med	-1583
▁ste	-1584
▁implement	-1585
▁stud	-1586
äm	-1587
iven	-1588
▁الع	-1589
▁day	-1590
▁sz	-1591
▁fu	-1592
duc	-1593
▁της	-1594
▁cond	-1595
▁dos	-1596
ши	-1597
isten	-1598
▁nem	-1599
van	-1600
▁won	-1601
▁didn	-1602
▁exper	-1603
▁、	-1604
▁jag	-1605
▁την	-1606
▁lar	-1607
▁yeah	-1608
by	-1609
imes	-1610
▁jeg	-1611
▁επ	-1612
▁fun	-1613
▁”	-1614
▁meas	-1615
▁uma	-1616
▁ст	-1617
ores	-1618
сь	-1619
▁x	-1620
▁ze	-1621
▁land	-1622
viron	-1623
▁pass	-1624
▁συ	-1625
▁old	-1626
▁ú	-1627
ativ	-1628
▁1994	-1629
tre	-1630
▁ei	-1631
▁อ	-1632
▁hal	-1633
▁environ	-1634
ima	-1635
ın	-1636
▁cit	-1637
▁better	-1638
▁since	-1639
ji	-1640
bo	-1641
ности	-1642
ital	-1643
▁了	-1644
ille	-1645
▁nh	-1646
▁но	-1647
▁resolution	-1648
gg	-1649
▁play	-1650
▁therefore	-1651
▁--	-1652
▁prof	-1653
ري	-1654
ety	-1655
▁“	-1656
ave	-1657
né	-1658
ars	-1659
▁number	-1660
år	-1661
ну	-1662
▁rev	-1663
ше	-1664
▁不	-1665
▁fur	-1666
▁mis	-1667
ani	-1668
▁exp	-1669
▁198	-1670
▁mal	-1671
рга	-1672
ently	-1673
hn	-1674
▁id	-1675
وا	-1676
▁gi	-1677
▁mean	-1678
▁nicht	-1679
▁mom	-1680
▁char	-1681
une	-1682
▁programme	-1683
▁ben	-1684
▁show	-1685
▁unt	-1686
▁sobre	-1687
bu	-1688
ya	-1689
zen	-1690
▁este	-1691
ious	-1692
▁members	-1693
ting	-1694
▁soci	-1695
▁interest	-1696
▁inde	-1697
▁without	-1698
▁certain	-1699
▁nous	-1700
▁mas	-1701
ents	-1702
▁dom	-1703
▁ant	-1704
▁level	-1705
▁exc	-1706
▁during	-1707
▁entre	-1708
▁η	-1709
▁sir	-1710
▁set	-1711
▁على	-1712
ually	-1713
▁second	-1714
▁mad	-1715
▁sal	-1716
▁accord	-1717
ود	-1718
▁special	-1719
▁wel	-1720
▁sv	-1721
▁با	-1722
alth	-1723
▁god	-1724
▁mais	-1725
ss	-1726
▁budget	-1727
amo	-1728
▁орга	-1729
itions	-1730
ства	-1731
ying	-1732
▁global	-1733
▁main	-1734
▁while	-1735
▁compl	-1736
itar	-1737
▁alle	-1738
wer	-1739
▁لل	-1740
▁tar	-1741
▁cost	-1742
vention	-1743
▁vers	-1744
ες	-1745
▁14	-1746
▁を	-1747
ines	-1748
▁ach	-1749
▁beg	-1750
▁απ	-1751
pre	-1752
▁fri	-1753
ност	-1754
ano	-1755
▁supp	-1756
omm	-1757
fe	-1758
▁dev	-1759
▁house	-1760
▁lead	-1761
εί	-1762
▁contrib	-1763
▁кото	-1764
ün	-1765
▁necess	-1766
▁бе	-1767
tern	-1768
▁για	-1769
▁tre	-1770
ám	-1771
▁course	-1772
rop	-1773
▁mind	-1774
▁view	-1775
▁post	-1776
▁open	-1777
▁30	-1778
ora	-1779
▁ou	-1780
▁nos	-1781
.1	-1782
ided	-1783
ploy	-1784
▁fac	-1785
▁possible	-1786
ство	-1787
not	-1788
▁са	-1789
▁als	-1790
ori	-1791
▁ş	-1792
▁16	-1793
ту	-1794
▁wr	-1795
ling	-1796
oney	-1797
ού	-1798
self	-1799
ised	-1800
▁used	-1801
▁17	-1802
ban	-1803
▁iz	-1804
isi	-1805
▁indust	-1806
ém	-1807
▁strate	-1808
ux	-1809
cu	-1810
▁是	-1811
ela	-1812
▁mov	-1813
▁に	-1814
▁ли	-1815
▁для	-1816
ock	-1817
▁financial	-1818
▁бо	-1819
▁environment	-1820
▁within	-1821
ott	-1822
▁ai	-1823
lement	-1824
▁amend	-1825
▁suc	-1826
▁sor	-1827
isation	-1828
▁air	-1829
ää	-1830
▁action	-1831
▁regard	-1832
▁αυ	-1833
pri	-1834
ua	-1835
▁mot	-1836
▁author	-1837
▁another	-1838
▁major	-1839
▁ö	-1840
▁establish	-1841
▁ann	-1842
▁things	-1843
▁viol	-1844
▁че	-1845
▁sw	-1846
про	-1847
▁13	-1848
▁komm	-1849
▁hist	-1850
br	-1851
▁amb	-1852
▁ale	-1853
ih	-1854
igt	-1855
raph	-1856
wa	-1857
ker	-1858
▁és	-1859
▁miss	-1860
ques	-1861
cht	-1862
ready	-1863
cha	-1864
ika	-1865
ways	-1866
▁qual	-1867
ты	-1868
▁found	-1869
▁plus	-1870
ég	-1871
▁already	-1872
▁ju	-1873
oj	-1874
▁ru	-1875
igen	-1876
▁ud	-1877
ned	-1878
ased	-1879
би	-1880
▁object	-1881
▁sure	-1882
▁colle	-1883
▁speci	-1884
▁به	-1885
▁dest	-1886
ics	-1887
▁tri	-1888
▁fil	-1889
▁pi	-1890
onna	-1891
▁compet	-1892
▁future	-1893
▁thing	-1894
▁cooperation	-1895
ount	-1896
ources	-1897
lev	-1898
ões	-1899
▁peace	-1900
ên	-1901
▁kill	-1902
abil	-1903
▁community	-1904
▁ни	-1905
▁aus	-1906
▁kun	-1907
ake	-1908
ัน	-1909
يم	-1910
▁ин	-1911
▁home	-1912
▁že	-1913
▁ans	-1914
▁happen	-1915
▁artic	-1916
zt	-1917
▁civ	-1918
▁confer	-1919
▁bra	-1920
ør	-1921
isl	-1922
▁please	-1923
▁espe	-1924
ισ	-1925
▁cult	-1926
▁port	-1927
▁around	-1928
▁doc	-1929
▁nam	-1930
▁stop	-1931
▁mag	-1932
lag	-1933
▁rapp	-1934
ющи	-1935
ís	-1936
▁further	-1937
▁ki	-1938
▁case	-1939
ino	-1940
▁të	-1941
▁ви	-1942
▁bur	-1943
▁exist	-1944
▁citiz	-1945
▁ç	-1946
yn	-1947
▁bre	-1948
▁رو	-1949
▁liv	-1950
ared	-1951
▁measures	-1952
▁discuss	-1953
λο	-1954
ών	-1955
▁sta	-1956
body	-1957
▁health	-1958
▁προ	-1959
▁occ	-1960
▁más	-1961
▁prim	-1962
ני	-1963
ena	-1964
▁next	-1965
anto	-1966
▁enc	-1967
▁kind	-1968
ras	-1969
ран	-1970
▁head	-1971
▁vor	-1972
▁25	-1973
eme	-1974
▁ang	-1975
▁including	-1976
ert	-1977
▁πρ	-1978
حد	-1979
▁project	-1980
дин	-1981
▁органи	-1982
▁priv	-1983
press	-1984
▁understand	-1985
▁چ	-1986
alt	-1987
▁doing	-1988
▁$	-1989
▁—	-1990
▁proced	-1991
▁refer	-1992
▁different	-1993
▁four	-1994
aciones	-1995
▁love	-1996
ette	-1997
mo	-1998
▁san	-1999
nie	-2000
▁wat	-2001
▁always	-2002
▁area	-2003
▁agreement	-2004
▁все	-2005
mit	-2006
ère	-2007
ét	-2008
▁liber	-2009
▁della	-2010
▁reas	-2011
▁ii	-2012
ized	-2013
▁hope	-2014
εν	-2015
zione	-2016
▁sing	-2017
▁keep	-2018
amos	-2019
▁как	-2020
▁1993	-2021
▁taken	-2022
▁rom	-2023
ذا	-2024
si	-2025
▁př	-2026
▁が	-2027
▁services	-2028
▁dies	-2029
▁mes	-2030
ông	-2031
minist	-2032
▁な	-2033
قد	-2034
elij	-2035
пра	-2036
▁yang	-2037
▁children	-2038
▁working	-2039
▁dal	-2040
ют	-2041
вы	-2042
▁eine	-2043
▁net	-2044
▁ста	-2045
ness	-2046
▁تو	-2047
▁nothing	-2048
▁debate	-2049
▁sig	-2050
▁gonna	-2051
elt	-2052
▁sent	-2053
iness	-2054
▁feel	-2055
енных	-2056
▁arm	-2057
ately	-2058
iod	-2059
▁ikke	-2060
sa	-2061
▁assist	-2062
▁egy	-2063
▁friend	-2064
▁russ	-2065
ند	-2066
ges	-2067
▁impro	-2068
▁1995	-2069
▁pen	-2070
▁dep	-2071
▁50	-2072
▁gre	-2073
▁сво	-2074
lic	-2075
▁fore	-2076
▁θα	-2077
▁să	-2078
▁là	-2079
ций	-2080
▁wait	-2081
▁curr	-2082
▁particip	-2083
▁ont	-2084
ναι	-2085
oti	-2086
▁effort	-2087
▁ис	-2088
ibility	-2089
ering	-2090
dy	-2091
▁europa	-2092
▁рас	-2093
▁done	-2094
гра	-2095
▁money	-2096
▁mig	-2097
tu	-2098
ár	-2099
▁sum	-2100
orte	-2101
▁each	-2102
▁sel	-2103
▁bil	-2104
رد	-2105
▁nov	-2106
▁allow	-2107
▁الس	-2108
▁ih	-2109
▁jed	-2110
lus	-2111
▁change	-2112
▁αυτ	-2113
▁protection	-2114
▁name	-2115
▁document	-2116
▁организа	-2117
esta	-2118
▁ban	-2119
▁elect	-2120
▁vil	-2121
▁common	-2122
▁contra	-2123
ye	-2124
▁että	-2125
▁ave	-2126
ется	-2127
▁require	-2128
▁grow	-2129
▁nel	-2130
work	-2131
▁χ	-2132
▁vari	-2133
▁seg	-2134
▁tro	-2135
▁sat	-2136
▁είναι	-2137
▁able	-2138
▁continu	-2139
ird	-2140
▁lim	-2141
▁okay	-2142
▁prior	-2143
ined	-2144
▁might	-2145
ize	-2146
لك	-2147
▁hat	-2148
nes	-2149
▁lot	-2150
▁cannot	-2151
مي	-2152
▁job	-2153
▁issue	-2154
▁citizens	-2155
▁pun	-2156
▁бу	-2157
▁period	-2158
▁administ	-2159
imo	-2160
ix	-2161
▁din	-2162
cis	-2163
nd	-2164
sta	-2165
▁που	-2166
ists	-2167
▁آ	-2168
▁года	-2169
▁niet	-2170
enda	-2171
▁night	-2172
▁ba	-2173
▁control	-2174
пи	-2175
ím	-2176
▁energy	-2177
▁means	-2178
ami	-2179
▁product	-2180
ор	-2181
ross	-2182
ään	-2183
▁power	-2184
ison	-2185
▁compan	-2186
▁так	-2187
▁speak	-2188
▁away	-2189
äs	-2190
▁orig	-2191
cul	-2192
▁rep	-2193
▁١	-2194
▁hy	-2195
▁expl	-2196
اب	-2197
▁moment	-2198
ogy	-2199
▁big	-2200
ude	-2201
▁כ	-2202
ный	-2203
ordin	-2204
bar	-2205
▁ве	-2206
ене	-2207
ша	-2208
ých	-2209
ration	-2210
▁thought	-2211
▁matter	-2212
▁pay	-2213
endo	-2214
▁så	-2215
ungen	-2216
▁reform	-2217
▁hon	-2218
▁abs	-2219
▁ng	-2220
▁bor	-2221
▁legisl	-2222
▁small	-2223
▁pap	-2224
ция	-2225
▁па	-2226
▁で	-2227
ides	-2228
об	-2229
▁cal	-2230
ences	-2231
idas	-2232
ischen	-2233
▁legal	-2234
▁commissioner	-2235
rem	-2236
▁bal	-2237
▁million	-2238
وم	-2239
ugh	-2240
ior	-2241
▁人	-2242
ief	-2243
ρά	-2244
▁dass	-2245
ria	-2246
▁ci	-2247
uj	-2248
▁zijn	-2249
ron	-2250
▁initi	-2251
▁manag	-2252
emos	-2253
▁region	-2254
ui	-2255
▁sich	-2256
sel	-2257
▁given	-2258
▁civil	-2259
▁promot	-2260
ние	-2261
▁меж	-2262
стви	-2263
▁که	-2264
▁dam	-2265
ολ	-2266
ool	-2267
eten	-2268
▁hey	-2269
▁21	-2270
▁few	-2271
▁invol	-2272
сси	-2273
over	-2274
▁mrs	-2275
▁hom	-2276
ique	-2277
▁су	-2278
icial	-2279
▁anything	-2280
сле	-2281
▁access	-2282
▁toget	-2283
▁这	-2284
▁diffic	-2285
▁trade	-2286
▁gir	-2287
▁rapporte	-2288
▁together	-2289
▁cho	-2290
ба	-2291
▁الب	-2292
ја	-2293
▁gar	-2294
iten	-2295
вер	-2296
▁од	-2297
▁må	-2298
▁αν	-2299
▁redu	-2300
vat	-2301
ward	-2302
تم	-2303
▁بال	-2304
isk	-2305
▁्	-2306
▁repu	-2307
-1	-2308
▁div	-2309
oura	-2310
тов	-2311
▁хо	-2312
тив	-2313
▁dit	-2314
▁wish	-2315
▁hot	-2316
▁bring	-2317
ining	-2318
▁lang	-2319
vol	-2320
▁rece	-2321
ror	-2322
▁univers	-2323
▁technolog	-2324
▁proposal	-2325
▁yet	-2326
jet	-2327
▁ע	-2328
▁ва	-2329
▁rul	-2330
▁bene	-2331
▁red	-2332
▁eas	-2333
▁ensure	-2334
▁gru	-2335
▁jul	-2336
▁run	-2337
embly	-2338
▁decision	-2339
αν	-2340
▁الد	-2341
▁esta	-2342
,000	-2343
▁assembly	-2344
adas	-2345
ным	-2346
▁»	-2347
▁chang	-2348
▁cris	-2349
nost	-2350
عد	-2351
τά	-2352
▁tut	-2353
▁sector	-2354
▁sci	-2355
▁β	-2356
▁他	-2357
▁pan	-2358
▁有	-2359
▁article	-2360
▁aan	-2361
▁shall	-2362
▁left	-2363
▁את	-2364
▁็	-2365
vail	-2366
▁ما	-2367
▁creat	-2368
ές	-2369
▁объ	-2370
▁υ	-2371
inen	-2372
▁aux	-2373
ages	-2374
▁intro	-2375
▁коми	-2376
▁dro	-2377
▁educ	-2378
▁esc	-2379
orth	-2380
ès	-2381
yor	-2382
▁example	-2383
▁arr	-2384
ische	-2385
kon	-2386
▁י	-2387
▁197	-2388
▁από	-2389
▁ole	-2390
ios	-2391
▁vote	-2392
ec	-2393
▁business	-2394
▁month	-2395
erd	-2396
▁kr	-2397
ении	-2398
▁ord	-2399
ôi	-2400
вет	-2401
mar	-2402
▁پ	-2403
▁ef	-2404
ello	-2405
▁consum	-2406
▁tas	-2407
iva	-2408
▁comb	-2409
▁success	-2410
▁remain	-2411
▁fran	-2412
▁pract	-2413
eli	-2414
▁face	-2415
hen	-2416
▁once	-2417
zer	-2418
aut	-2419
нов	-2420
▁hogy	-2421
▁obser	-2422
▁це	-2423
▁rad	-2424
▁girl	-2425
▁jak	-2426
σει	-2427
циа	-2428
▁«	-2429
▁session	-2430
▁[	-2431
▁]	-2432
▁дол	-2433
▁super	-2434
▁alt	-2435
рова	-2436
قت	-2437
▁между	-2438
itä	-2439
▁issues	-2440
zo	-2441
▁meeting	-2442
eter	-2443
▁kur	-2444
▁kad	-2445
▁free	-2446
▁problems	-2447
▁progress	-2448
▁areas	-2449
ario	-2450
wh	-2451
▁called	-2452
cing	-2453
ής	-2454
ей	-2455
cent	-2456
ood	-2457
▁المت	-2458
▁اين	-2459
eden	-2460
ically	-2461
▁mid	-2462
▁regional	-2463
ales	-2464
ential	-2465
▁meg	-2466
ones	-2467
este	-2468
aan	-2469
▁dru	-2470
▁origin	-2471
жен	-2472
▁có	-2473
▁school	-2474
ления	-2475
▁hold	-2476
ero	-2477
ours	-2478
ym	-2479
▁democrat	-2480
▁read	-2481
▁eur	-2482
▁¿	-2483
ged	-2484
▁imp	-2485
var	-2486
▁activities	-2487
itive	-2488
▁зна	-2489
▁whole	-2490
▁everything	-2491
▁recomm	-2492
ρί	-2493
▁gent	-2494
▁told	-2495
▁الا	-2496
▁opport	-2497
▁water	-2498
▁provis	-2499
▁των	-2500
ουν	-2501
ais	-2502
▁employ	-2503
rad	-2504
▁role	-2505
▁país	-2506
rument	-2507
nh	-2508
▁opportun	-2509
▁ak	-2510
▁presidente	-2511
sp	-2512
ried	-2513
aten	-2514
ιο	-2515
سا	-2516
▁cos	-2517
▁prop	-2518
▁τα	-2519
▁transport	-2520
cted	-2521
▁cla	-2522
▁seem	-2523
▁secretary	-2524
▁resources	-2525
▁mult	-2526
▁enough	-2527
ivid	-2528
ται	-2529
▁ya	-2530
acional	-2531
osp	-2532
▁following	-2533
▁lad	-2534
▁ident	-2535
▁nom	-2536
uks	-2537
ioni	-2538
▁apr	-2539
вля	-2540
eld	-2541
мы	-2542
бе	-2543
дер	-2544
един	-2545
▁tele	-2546
▁difficult	-2547
▁mary	-2548
гу	-2549
▁cir	-2550
▁tid	-2551
▁less	-2552
▁#	-2553
zu	-2554
▁ر	-2555
▁until	-2556
▁obl	-2557
▁và	-2558
vin	-2559
ania	-2560
▁party	-2561
▁agric	-2562
род	-2563
▁young	-2564
▁dir	-2565
▁kar	-2566
هم	-2567
▁clos	-2568
▁draft	-2569
gar	-2570
▁princip	-2571
▁sorry	-2572
μέ	-2573
ength	-2574
ender	-2575
▁build	-2576
ogn	-2577
ità	-2578
ether	-2579
hd	-2580
kl	-2581
ως	-2582
▁vy	-2583
▁ri	-2584
▁event	-2585
▁στη	-2586
▁instrument	-2587
▁ш	-2588
▁rapporteur	-2589
▁ক	-2590
▁necessary	-2591
ที	-2592
▁full	-2593
▁conference	-2594
ções	-2595
▁está	-2596
▁request	-2597
▁которы	-2598
▁crisis	-2599
ator	-2600
enn	-2601
▁leave	-2602
ivo	-2603
▁dia	-2604
▁territ	-2605
ield	-2606
▁deal	-2607
▁parte	-2608
▁republic	-2609
λα	-2610
▁δεν	-2611
▁1998	-2612
▁addition	-2613
▁über	-2614
▁era	-2615
gs	-2616
▁position	-2617
▁σε	-2618
rica	-2619
earch	-2620
ky	-2621
20	-2622
▁research	-2623
ira	-2624
ency	-2625
▁ges	-2626
▁food	-2627
▁πα	-2628
hod	-2629
▁стра	-2630
▁23	-2631
▁milit	-2632
atives	-2633
ров	-2634
▁data	-2635
▁step	-2636
▁pur	-2637
▁bad	-2638
ха	-2639
▁later	-2640
itor	-2641
▁atta	-2642
▁serious	-2643
▁الح	-2644
general	-2645
▁convention	-2646
▁treaty	-2647
▁third	-2648
▁particularly	-2649
▁kas	-2650
▁jap	-2651
▁family	-2652
▁specific	-2653
ove	-2654
tt	-2655
▁lab	-2656
▁implementation	-2657
▁needs	-2658
▁integr	-2659
▁nas	-2660
▁bien	-2661
от	-2662
▁idea	-2663
▁ו	-2664
▁vir	-2665
ann	-2666
кла	-2667
reg	-2668
ني	-2669
▁dou	-2670
▁word	-2671
ances	-2672
azione	-2673
▁ig	-2674
▁bed	-2675
▁lis	-2676
▁continue	-2677
ii	-2678
вя	-2679
▁рабо	-2680
rav	-2681
▁actually	-2682
▁الأم	-2683
▁tä	-2684
▁inn	-2685
бы	-2686
▁24	-2687
▁opin	-2688
▁werden	-2689
▁sever	-2690
jen	-2691
▁jud	-2692
▁sett	-2693
▁individ	-2694
▁appe	-2695
▁become	-2696
▁pens	-2697
▁whether	-2698
isen	-2699
▁nuc	-2700
ises	-2701
▁german	-2702
рен	-2703
ær	-2704
▁express	-2705
utes	-2706
λη	-2707
▁tw	-2708
▁relations	-2709
▁fav	-2710
▁gro	-2711
▁among	-2712
wards	-2713
▁gentle	-2714
oud	-2715
▁press	-2716
▁ว	-2717
▁trad	-2718
чески	-2719
▁local	-2720
▁alla	-2721
▁tôi	-2722
▁live	-2723
ке	-2724
ার	-2725
▁efforts	-2726
▁test	-2727
entes	-2728
▁took	-2729
▁rules	-2730
▁alg	-2731
▁final	-2732
▁hor	-2733
▁年	-2734
▁fundament	-2735
▁22	-2736
▁parag	-2737
ées	-2738
lam	-2739
▁china	-2740
sh	-2741
▁1996	-2742
▁bank	-2743
▁stay	-2744
▁recommend	-2745
▁jan	-2746
ability	-2747
▁chr	-2748
▁kommission	-2749
ican	-2750
▁hear	-2751
▁と	-2752
▁euroop	-2753
▁vous	-2754
▁sind	-2755
▁court	-2756
rij	-2757
▁hur	-2758
▁heb	-2759
ingen	-2760
она	-2761
▁bill	-2762
▁hi	-2763
▁пере	-2764
▁reason	-2765
▁sono	-2766
▁adopted	-2767
▁kam	-2768
▁subject	-2769
▁い	-2770
vious	-2771
تر	-2772
▁father	-2773
▁polít	-2774
że	-2775
▁basis	-2776
ów	-2777
лож	-2778
▁march	-2779
▁الق	-2780
▁hard	-2781
ению	-2782
▁ved	-2783
▁إلى	-2784
▁rela	-2785
ibil	-2786
في	-2787
кре	-2788
▁avec	-2789
▁force	-2790
▁nä	-2791
ification	-2792
▁dell	-2793
спе	-2794
▁fight	-2795
▁lat	-2796
imate	-2797
▁brit	-2798
▁negoti	-2799
▁ful	-2800
ified	-2801
▁central	-2802
▁came	-2803
▁door	-2804
ös	-2805
▁kos	-2806
itted	-2807
▁having	-2808
▁regul	-2809
elo	-2810
пре	-2811
bru	-2812
▁dre	-2813
▁introdu	-2814
عل	-2815
len	-2816
▁sont	-2817
used	-2818
▁isra	-2819
▁از	-2820
▁пу	-2821
▁ton	-2822
▁الج	-2823
▁lie	-2824
selves	-2825
▁prés	-2826
▁address	-2827
▁city	-2828
▁том	-2829
▁mater	-2830
▁grand	-2831
▁1997	-2832
het	-2833
ila	-2834
vä	-2835
ër	-2836
▁क	-2837
lex	-2838
▁provide	-2839
▁wie	-2840
он	-2841
▁aku	-2842
▁ос	-2843
ub	-2844
ρω	-2845
▁opp	-2846
▁strong	-2847
iento	-2848
ação	-2849
amento	-2850
▁się	-2851
▁constit	-2852
▁dig	-2853
▁comun	-2854
▁demand	-2855
▁φ	-2856
▁coordin	-2857
дар	-2858
ode	-2859
▁fis	-2860
▁kau	-2861
idade	-2862
▁lib	-2863
▁τι	-2864
ность	-2865
▁agenda	-2866
▁suff	-2867
▁total	-2868
aps	-2869
▁institutions	-2870
▁west	-2871
▁ότι	-2872
▁seen	-2873
▁し	-2874
zie	-2875
▁ga	-2876
ples	-2877
▁ett	-2878
▁recogn	-2879
▁anal	-2880
▁directive	-2881
ption	-2882
▁disp	-2883
▁saya	-2884
▁kt	-2885
kin	-2886
mon	-2887
▁maybe	-2888
▁uns	-2889
akt	-2890
▁accept	-2891
▁tou	-2892
▁taking	-2893
ρε	-2894
▁дру	-2895
thers	-2896
▁fig	-2897
▁wal	-2898
▁expect	-2899
άν	-2900
▁book	-2901
▁اون	-2902
ائ	-2903
ns	-2904
▁parties	-2905
ished	-2906
بر	-2907
asta	-2908
▁agricult	-2909
▁terror	-2910
ществ	-2911
▁0	-2912
▁complet	-2913
ably	-2914
▁sept	-2915
ться	-2916
▁approach	-2917
ids	-2918
▁least	-2919
▁struct	-2920
▁util	-2921
каза	-2922
▁kl	-2923
▁experien	-2924
▁kol	-2925
idades	-2926
▁desc	-2927
▁ро	-2928
▁fall	-2929
▁past	-2930
way	-2931
▁death	-2932
▁five	-2933
▁tax	-2934
för	-2935
▁ま	-2936
ughter	-2937
▁cat	-2938
▁try	-2939
▁south	-2940
▁dei	-2941
▁か	-2942
iu	-2943
ное	-2944
encia	-2945
ــ	-2946
ας	-2947
▁applic	-2948
▁aim	-2949
▁196	-2950
▁bit	-2951
▁été	-2952
▁record	-2953
▁или	-2954
▁large	-2955
▁john	-2956
▁imm	-2957
▁воз	-2958
▁แ	-2959
▁raz	-2960
▁strength	-2961
nya	-2962
▁hab	-2963
col	-2964
▁στο	-2965
▁six	-2966
▁retur	-2967
enci	-2968
ım	-2969
▁gener	-2970
▁vill	-2971
▁ara	-2972
ades	-2973
▁reach	-2974
▁国	-2975
▁aj	-2976
▁aqu	-2977
▁december	-2978
▁attention	-2979
▁roz	-2980
▁population	-2981
isa	-2982
ema	-2983
▁trab	-2984
▁предста	-2985
▁coming	-2986
▁design	-2987
▁room	-2988
▁cop	-2989
iste	-2990
▁그	-2991
cher	-2992
▁deter	-2993
ไม	-2994
▁организации	-2995
▁ao	-2996
▁signific	-2997
cially	-2998
▁making	-2999
▁επι	-3000
▁days	-3001
▁isn	-3002
tr	-3003
▁không	-3004
jer	-3005
фе	-3006
▁programmes	-3007
▁doesn	-3008
▁questions	-3009
λε	-3010
▁service	-3011
▁ital	-3012
idence	-3013
▁benef	-3014
▁freed	-3015
ton	-3016
σης	-3017
▁mand	-3018
▁کن	-3019
▁sud	-3020
▁вопро	-3021
▁ευ	-3022
.2	-3023
жд	-3024
▁police	-3025
▁объедин	-3026
▁vid	-3027
ουμε	-3028
▁perm	-3029
▁times	-3030
mal	-3031
▁vict	-3032
▁oct	-3033
זה	-3034
ners	-3035
▁27	-3036
éd	-3037
▁mut	-3038
▁ven	-3039
▁mund	-3040
▁ses	-3041
▁office	-3042
μο	-3043
▁assistance	-3044
▁fond	-3045
cie	-3046
▁begin	-3047
▁gentlemen	-3048
▁king	-3049
нк	-3050
▁لا	-3051
▁light	-3052
▁conditions	-3053
ül	-3054
▁100	-3055
▁cro	-3056
▁frame	-3057
▁sil	-3058
▁independ	-3059
▁الإ	-3060
icas	-3061
eren	-3062
يل	-3063
ctions	-3064
airs	-3065
▁due	-3066
že	-3067
▁hol	-3068
▁aust	-3069
▁ago	-3070
▁often	-3071
iska	-3072
ně	-3073
ella	-3074
пу	-3075
▁remember	-3076
▁enter	-3077
▁q	-3078
▁based	-3079
áv	-3080
▁dri	-3081
elijk	-3082
ור	-3083
▁wanted	-3084
ismo	-3085
▁nach	-3086
▁rat	-3087
▁uk	-3088
▁comis	-3089
ργ	-3090
▁auch	-3091
ול	-3092
▁consult	-3093
раль	-3094
▁education	-3095
▁ча	-3096
cion	-3097
idos	-3098
ither	-3099
▁lear	-3100
▁য	-3101
▁26	-3102
less	-3103
▁ز	-3104
▁pet	-3105
ming	-3106
▁40	-3107
▁listen	-3108
▁freedom	-3109
▁prot	-3110
eder	-3111
▁الن	-3112
▁こ	-3113
▁commiss	-3114
▁terms	-3115
▁mother	-3116
▁current	-3117
▁2000	-3118
ization	-3119
ych	-3120
▁several	-3121
▁foreign	-3122
unk	-3123
▁soon	-3124
▁asso	-3125
▁pred	-3126
asi	-3127
▁nuclear	-3128
bb	-3129
▁πολ	-3130
cz	-3131
ires	-3132
▁ê	-3133
▁뗄	-3134
θε	-3135
ova	-3136
що	-3137
king	-3138
mas	-3139
مل	-3140
anda	-3141
▁съ	-3142
▁של	-3143
▁arg	-3144
ща	-3145
eda	-3146
most	-3147
▁sul	-3148
▁هم	-3149
▁πε	-3150
▁cong	-3151
▁quite	-3152
▁recon	-3153
▁第	-3154
▁ان	-3155
▁account	-3156
▁minister	-3157
▁cette	-3158
str	-3159
și	-3160
▁ez	-3161
▁developing	-3162
▁estados	-3163
ury	-3164
▁mess	-3165
▁mai	-3166
▁prob	-3167
gal	-3168
ono	-3169
sch	-3170
roll	-3171
▁pret	-3172
▁ക	-3173
cep	-3174
kom	-3175
ungs	-3176
▁low	-3177
▁наций	-3178
▁star	-3179
▁aspect	-3180
▁לא	-3181
▁000	-3182
▁sist	-3183
▁short	-3184
▁military	-3185
λά	-3186
▁move	-3187
▁объединенных	-3188
▁especially	-3189
▁á	-3190
▁society	-3191
line	-3192
▁разви	-3193
ân	-3194
▁ব	-3195
ска	-3196
▁ти	-3197
▁hier	-3198
▁hay	-3199
kn	-3200
נו	-3201
▁rather	-3202
▁uz	-3203
ํา	-3204
hal	-3205
▁mul	-3206
▁pak	-3207
▁dead	-3208
▁عن	-3209
▁bol	-3210
▁boy	-3211
▁mel	-3212
ils	-3213
▁cred	-3214
▁bla	-3215
aux	-3216
▁capac	-3217
бле	-3218
▁uit	-3219
oman	-3220
цен	-3221
ном	-3222
▁associ	-3223
فا	-3224
▁مع	-3225
▁că	-3226
▁wrong	-3227
else	-3228
istan	-3229
مة	-3230
ческо	-3231
ising	-3232
▁би	-3233
▁deleg	-3234
▁else	-3235
▁individual	-3236
aria	-3237
uer	-3238
han	-3239
▁subst	-3240
▁presiden	-3241
▁item	-3242
rio	-3243
ived	-3244
▁parlamento	-3245
▁التي	-3246
taa	-3247
народ	-3248
▁sit	-3249
▁review	-3250
▁africa	-3251
▁held	-3252
▁ladies	-3253
icos	-3254
▁herr	-3255
▁line	-3256
▁anim	-3257
hl	-3258
ona	-3259
стоя	-3260
▁communic	-3261
ág	-3262
▁went	-3263
ходи	-3264
uto	-3265
iem	-3266
ред	-3267
▁ত	-3268
▁framework	-3269
▁tan	-3270
ench	-3271
▁δια	-3272
سي	-3273
oss	-3274
▁top	-3275
▁международ	-3276
رب	-3277
elen	-3278
▁importance	-3279
▁jour	-3280
▁1992	-3281
▁towards	-3282
▁avail	-3283
▁strateg	-3284
▁paragraph	-3285
▁democra	-3286
▁alth	-3287
▁week	-3288
ikt	-3289
▁ба	-3290
ired	-3291
▁via	-3292
uv	-3293
▁appropri	-3294
▁sens	-3295
▁ec	-3296
hte	-3297
зна	-3298
▁mention	-3299
orn	-3300
▁1999	-3301
▁stra	-3302
▁christ	-3303
ciones	-3304
iding	-3305
asing	-3306
še	-3307
▁text	-3308
циаль	-3309
▁although	-3310
▁ม	-3311
my	-3312
of	-3313
ador	-3314
▁aug	-3315
▁log	-3316
▁single	-3317
day	-3318
▁sustain	-3319
▁others	-3320
mu	-3321
▁growth	-3322
▁sua	-3323
клю	-3324
▁194	-3325
ran	-3326
gli	-3327
▁прави	-3328
esti	-3329
▁contain	-3330
σε	-3331
ление	-3332
erv	-3333
▁fundamental	-3334
▁seu	-3335
▁madam	-3336
alog	-3337
▁также	-3338
▁defin	-3339
▁writ	-3340
ذلك	-3341
▁proper	-3342
ений	-3343
▁pays	-3344
οι	-3345
▁various	-3346
▁stre	-3347
قة	-3348
essa	-3349
▁pero	-3350
ър	-3351
▁according	-3352
▁éta	-3353
▁achie	-3354
▁concer	-3355
ца	-3356
▁ira	-3357
▁conte	-3358
▁ini	-3359
ρό	-3360
gt	-3361
▁fed	-3362
▁zo	-3363
▁ay	-3364
bién	-3365
side	-3366
▁relig	-3367
▁increase	-3368
▁tim	-3369
اي	-3370
▁bab	-3371
aks	-3372
via	-3373
lie	-3374
▁слу	-3375
▁ή	-3376
▁oblig	-3377
▁también	-3378
▁mass	-3379
▁31	-3380
▁vä	-3381
нима	-3382
▁گ	-3383
судар	-3384
▁pré	-3385
▁ing	-3386
▁28	-3387
kel	-3388
iske	-3389
▁along	-3390
▁happened	-3391
▁mö	-3392
▁mol	-3393
▁ת	-3394
af	-3395
أن	-3396
وب	-3397
rimin	-3398
▁ren	-3399
ον	-3400
▁εν	-3401
▁impa	-3402
nu	-3403
alf	-3404
▁management	-3405
ums	-3406
▁fort	-3407
▁unter	-3408
ume	-3409
bra	-3410
.3	-3411
▁ค	-3412
bon	-3413
▁vu	-3414
▁base	-3415
vert	-3416
ster	-3417
▁ces	-3418
oi	-3419
anger	-3420
▁concerned	-3421
رة	-3422
▁true	-3423
▁thanks	-3424
▁prevent	-3425
ley	-3426
ству	-3427
▁государ	-3428
ذه	-3429
▁months	-3430
ked	-3431
كن	-3432
▁foc	-3433
ash	-3434
▁field	-3435
▁bom	-3436
▁ص	-3437
▁señ	-3438
▁mir	-3439
ensive	-3440
▁effective	-3441
antes	-3442
▁foi	-3443
▁şi	-3444
icient	-3445
bs	-3446
▁lik	-3447
▁personal	-3448
▁স	-3449
▁morning	-3450
▁vel	-3451
chaft	-3452
▁以	-3453
udi	-3454
▁proposed	-3455
▁।	-3456
▁sex	-3457
ól	-3458
cio	-3459
жда	-3460
▁french	-3461
▁policies	-3462
▁wird	-3463
ump	-3464
▁déc	-3465
تي	-3466
pan	-3467
▁fine	-3468
ring	-3469
▁js	-3470
▁langu	-3471
ça	-3472
▁indic	-3473
▁saf	-3474
τή	-3475
▁mere	-3476
ствен	-3477
▁și	-3478
▁pros	-3479
ims	-3480
uses	-3481
▁looking	-3482
لة	-3483
▁crit	-3484
▁welcome	-3485
cks	-3486
▁гене	-3487
ksi	-3488
iro	-3489
ilt	-3490
ная	-3491
▁fail	-3492
حدة	-3493
гла	-3494
▁tun	-3495
▁senhor	-3496
▁solid	-3497
▁kal	-3498
▁ill	-3499
ole	-3500
▁pie	-3501
▁finally	-3502
▁stor	-3503
сту	-3504
▁sn	-3505
▁mich	-3506
πα	-3507
ác	-3508
▁near	-3509
▁его	-3510
▁tout	-3511
▁watch	-3512
▁bij	-3513
▁আ	-3514
▁authorities	-3515
▁production	-3516
ively	-3517
▁heard	-3518
yd	-3519
дни	-3520
▁tai	-3521
▁energ	-3522
▁nice	-3523
▁tah	-3524
▁todos	-3525
▁win	-3526
اء	-3527
▁class	-3528
▁words	-3529
дов	-3530
▁cover	-3531
▁kö	-3532
▁prepar	-3533
▁中	-3534
▁dere	-3535
▁haben	-3536
▁strategy	-3537
▁partners	-3538
▁الف	-3539
من	-3540
jem	-3541
zn	-3542
▁τον	-3543
▁upp	-3544
▁organization	-3545
ended	-3546
▁saw	-3547
▁behalf	-3548
▁он	-3549
▁geor	-3550
сте	-3551
▁conclus	-3552
▁prep	-3553
▁doll	-3554
▁known	-3555
▁αυτό	-3556
▁mur	-3557
άλ	-3558
▁justice	-3559
▁pom	-3560
▁impact	-3561
▁докла	-3562
ograph	-3563
▁japan	-3564
▁στην	-3565
▁talking	-3566
▁june	-3567
▁jest	-3568
▁会	-3569
▁groups	-3570
▁offer	-3571
▁send	-3572
▁forward	-3573
▁vez	-3574
зу	-3575
▁agree	-3576
▁cra	-3577
▁unf	-3578
▁recent	-3579
▁48	-3580
chan	-3581
▁可	-3582
▁investig	-3583
▁nap	-3584
▁kor	-3585
▁worden	-3586
тия	-3587
.5	-3588
▁encoura	-3589
▁kap	-3590
ush	-3591
▁pon	-3592
▁sab	-3593
änd	-3594
▁europea	-3595
änder	-3596
olo	-3597
▁trying	-3598
ätt	-3599
sten	-3600
▁palest	-3601
▁être	-3602
table	-3603
vid	-3604
▁sle	-3605
bia	-3606
medi	-3607
▁economy	-3608
nos	-3609
▁در	-3610
▁ന	-3611
фор	-3612
▁provided	-3613
▁organizations	-3614
▁chall	-3615
▁aid	-3616
▁大	-3617
رف	-3618
ίας	-3619
īb	-3620
▁после	-3621
adi	-3622
▁conne	-3623
dom	-3624
니다	-3625
▁avo	-3626
▁rich	-3627
lij	-3628
ột	-3629
▁nó	-3630
▁الو	-3631
коно	-3632
▁turn	-3633
▁american	-3634
▁fer	-3635
▁profess	-3636
▁né	-3637
▁kans	-3638
▁mob	-3639
▁comme	-3640
قي	-3641
▁củ	-3642
orrow	-3643
▁strengthen	-3644
сам	-3645
▁staff	-3646
▁że	-3647
▁sugg	-3648
issa	-3649
▁available	-3650
▁комите	-3651
▁ah	-3652
▁emer	-3653
▁wij	-3654
▁europé	-3655
▁term	-3656
ches	-3657
▁của	-3658
▁clar	-3659
▁natural	-3660
▁tomorrow	-3661
▁affect	-3662
▁early	-3663
▁tidak	-3664
ured	-3665
▁mission	-3666
▁guar	-3667
▁note	-3668
ceed	-3669
.4	-3670
▁mens	-3671
сть	-3672
▁favour	-3673
▁chi	-3674
▁opinion	-3675
▁asked	-3676
▁lä	-3677
▁impos	-3678
▁οι	-3679
▁though	-3680
ote	-3681
▁2008	-3682
▁itself	-3683
▁вре	-3684
▁dut	-3685
▁trou	-3686
▁facil	-3687
ους	-3688
▁países	-3689
▁mac	-3690
cho	-3691
▁2009	-3692
ota	-3693
عة	-3694
▁cut	-3695
amp	-3696
جا	-3697
▁list	-3698
▁maar	-3699
oto	-3700
▁frå	-3701
вания	-3702
uro	-3703
▁mog	-3704
▁più	-3705
▁fal	-3706
ır	-3707
▁environmental	-3708
▁fol	-3709
ฉัน	-3710
شه	-3711
▁half	-3712
let	-3713
ging	-3714
▁генераль	-3715
▁bod	-3716
зы	-3717
ellen	-3718
▁training	-3719
plic	-3720
▁συν	-3721
▁delle	-3722
▁fel	-3723
ρη	-3724
▁rés	-3725
ilar	-3726
▁*	-3727
▁absol	-3728
▁legislation	-3729
▁official	-3730
ته	-3731
▁proposals	-3732
▁woman	-3733
▁sea	-3734
▁এ	-3735
▁ง	-3736
▁λ	-3737
▁york	-3738
▁một	-3739
▁circ	-3740
▁fem	-3741
▁affairs	-3742
atic	-3743
▁প	-3744
uf	-3745
▁autor	-3746
▁ook	-3747
▁έχ	-3748
يس	-3749
▁confl	-3750
▁side	-3751
▁gal	-3752
▁uh	-3753
enti	-3754
▁komis	-3755
▁reports	-3756
мот	-3757
▁close	-3758
▁απο	-3759
▁elle	-3760
▁september	-3761
ës	-3762
▁transpar	-3763
10	-3764
▁publ	-3765
▁сле	-3766
▁å	-3767
bt	-3768
ako	-3769
▁kön	-3770
▁november	-3771
▁pent	-3772
iger	-3773
чен	-3774
uring	-3775
ots	-3776
▁ali	-3777
ín	-3778
xim	-3779
▁company	-3780
aire	-3781
▁internet	-3782
▁отно	-3783
вед	-3784
ème	-3785
▁hit	-3786
▁perman	-3787
▁opt	-3788
lin	-3789
▁あ	-3790
▁suggest	-3791
▁zur	-3792
▁america	-3793
▁هذا	-3794
ruction	-3795
▁condu	-3796
ющих	-3797
▁getting	-3798
reb	-3799
จะ	-3800
▁hen	-3801
▁vien	-3802
▁questo	-3803
hem	-3804
ית	-3805
▁quick	-3806
▁crimin	-3807
eg	-3808
фи	-3809
▁μέ	-3810
▁perh	-3811
▁poor	-3812
lem	-3813
▁añ	-3814
▁49	-3815
пол	-3816
▁وا	-3817
▁makes	-3818
▁oppos	-3819
iko	-3820
▁мы	-3821
▁2007	-3822
▁そ	-3823
ift	-3824
▁protect	-3825
▁sé	-3826
▁tit	-3827
ับ	-3828
▁prime	-3829
▁だ	-3830
▁cru	-3831
▁janu	-3832
▁governments	-3833
▁2010	-3834
▁material	-3835
רו	-3836
▁arri	-3837
▁upon	-3838
▁обе	-3839
▁në	-3840
با	-3841
▁media	-3842
▁♪	-3843
▁بر	-3844
▁opportunity	-3845
iga	-3846
▁对	-3847
esto	-3848
iek	-3849
▁fuck	-3850
▁waar	-3851
νη	-3852
▁administrat	-3853
hand	-3854
▁everyone	-3855
bur	-3856
ola	-3857
▁alone	-3858
▁led	-3859
▁kont	-3860
▁capital	-3861
itos	-3862
нии	-3863
imento	-3864
▁tag	-3865
при	-3866
▁responsibility	-3867
▁industry	-3868
▁answer	-3869
อง	-3870
ality	-3871
▁свя	-3872
▁almost	-3873
▁195	-3874
▁поли	-3875
rar	-3876
▁ep	-3877
▁wonder	-3878
▁29	-3879
una	-3880
▁arbe	-3881
▁も	-3882
▁τις	-3883
▁жи	-3884
labor	-3885
▁cy	-3886
det	-3887
▁film	-3888
▁pou	-3889
▁دار	-3890
▁adv	-3891
idi	-3892
▁safety	-3893
los	-3894
▁living	-3895
ượ	-3896
▁minutes	-3897
▁constitution	-3898
ασ	-3899
nal	-3900
って	-3901
▁dialog	-3902
imi	-3903
▁nad	-3904
▁greater	-3905
ональ	-3906
▁democratic	-3907
▁island	-3908
▁gli	-3909
ời	-3910
▁deta	-3911
ham	-3912
▁auss	-3913
▁comes	-3914
▁bul	-3915
▁trib	-3916
▁favor	-3917
olution	-3918
يز	-3919
▁pok	-3920
▁perhaps	-3921
▁hän	-3922
▁kes	-3923
gest	-3924
вать	-3925
äll	-3926
ными	-3927
▁bez	-3928
▁র	-3929
usi	-3930
▁institution	-3931
itet	-3932
ify	-3933
unch	-3934
▁spr	-3935
▁sound	-3936
▁key	-3937
▁كان	-3938
έπ	-3939
▁_	-3940
▁minist	-3941
▁fait	-3942
▁lost	-3943
▁friends	-3944
eft	-3945
▁يه	-3946
▁ham	-3947
▁이	-3948
▁gest	-3949
نة	-3950
rel	-3951
▁υπ	-3952
▁perform	-3953
▁ط	-3954
▁sein	-3955
▁غ	-3956
▁cs	-3957
▁lov	-3958
yle	-3959
apa	-3960
rast	-3961
جل	-3962
▁์	-3963
▁1990	-3964
iente	-3965
▁says	-3966
▁提	-3967
▁ח	-3968
▁ä	-3969
ober	-3970
▁fif	-3971
▁subs	-3972
▁comprom	-3973
itter	-3974
lt	-3975
▁fell	-3976
cs	-3977
▁body	-3978
▁merc	-3979
usta	-3980
▁фи	-3981
грам	-3982
▁divers	-3983
▁tv	-3984
▁nature	-3985
▁日	-3986
▁systems	-3987
▁rele	-3988
прав	-3989
▁mine	-3990
▁comisión	-3991
▁regulation	-3992
itten	-3993
gra	-3994
ды	-3995
▁desp	-3996
nel	-3997
▁dim	-3998
▁english	-3999
▁scient	-4000
▁break	-4001
▁cases	-4002
▁original	-4003
ád	-4004
▁someone	-4005
yl	-4006
▁сто	-4007
ės	-4008
▁black	-4009
▁fue	-4010
▁المتحدة	-4011
▁heart	-4012
▁north	-4013
▁procedure	-4014
▁amendments	-4015
▁deze	-4016
▁road	-4017
▁hv	-4018
▁forces	-4019
▁dob	-4020
▁į	-4021
▁untuk	-4022
▁х	-4023
▁declar	-4024
▁decided	-4025
▁الخ	-4026
▁april	-4027
jë	-4028
▁nou	-4029
دم	-4030
وق	-4031
▁exact	-4032
▁above	-4033
eth	-4034
▁innov	-4035
▁depart	-4036
▁ue	-4037
▁histor	-4038
uge	-4039
ams	-4040
▁rapport	-4041
▁mechan	-4042
▁wy	-4043
rag	-4044
▁significant	-4045
▁εκ	-4046
▁late	-4047
esse	-4048
٩٩	-4049
▁pain	-4050
isf	-4051
key	-4052
▁israel	-4053
▁hello	-4054
eta	-4055
▁consequ	-4056
▁guy	-4057
▁threat	-4058
▁aud	-4059
vere	-4060
can	-4061
▁tour	-4062
▁presidency	-4063
▁jos	-4064
▁conta	-4065
▁started	-4066
fl	-4067
▁pare	-4068
▁relev	-4069
▁july	-4070
▁indeed	-4071
мя	-4072
▁east	-4073
▁influ	-4074
▁است	-4075
▁sek	-4076
▁naj	-4077
▁הי	-4078
▁τους	-4079
▁осу	-4080
▁technical	-4081
▁kne	-4082
▁ένα	-4083
▁employment	-4084
liver	-4085
inn	-4086
esso	-4087
▁bec	-4088
▁الدول	-4089
či	-4090
▁rap	-4091
▁products	-4092
▁increasing	-4093
uta	-4094
▁midd	-4095
▁verd	-4096
ุณ	-4097
ija	-4098
▁jur	-4099
cí	-4100
▁established	-4101
utt	-4102
▁ह	-4103
ival	-4104
▁using	-4105
▁jam	-4106
ningen	-4107
▁funds	-4108
isu	-4109
▁assess	-4110
eni	-4111
ités	-4112
▁october	-4113
▁européen	-4114
וד	-4115
▁industri	-4116
ответ	-4117
าร	-4118
▁involved	-4119
▁долж	-4120
▁nar	-4121
oro	-4122
▁private	-4123
▁eg	-4124
enden	-4125
where	-4126
σεις	-4127
▁modern	-4128
▁demon	-4129
▁fi	-4130
yes	-4131
ới	-4132
▁الص	-4133
▁ker	-4134
▁france	-4135
▁má	-4136
▁أو	-4137
▁internal	-4138
▁tent	-4139
▁beaut	-4140
ovo	-4141
▁needed	-4142
▁bag	-4143
▁myself	-4144
▁technology	-4145
▁risk	-4146
▁гру	-4147
▁tien	-4148
ву	-4149
▁fish	-4150
▁joint	-4151
▁其	-4152
▁fat	-4153
▁就	-4154
iques	-4155
دا	-4156
った	-4157
бу	-4158
▁их	-4159
▁væ	-4160
φο	-4161
empt	-4162
▁skal	-4163
▁entire	-4164
▁extrem	-4165
wi	-4166
ের	-4167
▁principle	-4168
▁proc	-4169
oke	-4170
▁pad	-4171
▁itu	-4172
▁safe	-4173
▁extra	-4174
cle	-4175
▁võ	-4176
▁tamb	-4177
ateg	-4178
▁yourself	-4179
▁sag	-4180
▁وت	-4181
седа	-4182
▁fire	-4183
ţi	-4184
▁rule	-4185
าย	-4186
▁desar	-4187
▁ди	-4188
▁longer	-4189
▁所	-4190
▁лю	-4191
▁ready	-4192
oni	-4193
▁create	-4194
▁town	-4195
▁famil	-4196
bol	-4197
▁pentru	-4198
▁pel	-4199
▁democracy	-4200
ได	-4201
▁climate	-4202
▁fair	-4203
▁cause	-4204
▁age	-4205
▁よ	-4206
▁clearly	-4207
istä	-4208
▁cel	-4209
▁happy	-4210
▁програм	-4211
▁vide	-4212
▁помо	-4213
▁gas	-4214
▁соответ	-4215
▁nav	-4216
▁organis	-4217
assa	-4218
▁imag	-4219
▁europä	-4220
ination	-4221
▁similar	-4222
▁refle	-4223
▁jun	-4224
▁συμ	-4225
▁jah	-4226
▁kann	-4227
sz	-4228
ktiv	-4229
mp	-4230
hes	-4231
▁depend	-4232
vement	-4233
▁became	-4234
heid	-4235
▁sr	-4236
▁πρό	-4237
▁saying	-4238
cement	-4239
▁נ	-4240
য়	-4241
uje	-4242
▁durante	-4243
спо	-4244
▁positive	-4245
▁workers	-4246
▁importante	-4247
▁эти	-4248
ció	-4249
--	-4250
▁anne	-4251
▁parlement	-4252
mak	-4253
▁broad	-4254
ým	-4255
▁anh	-4256
▁negotiations	-4257
tag	-4258
rict	-4259
▁monitor	-4260
22	-4261
▁forma	-4262
▁пер	-4263
▁bei	-4264
▁appropriate	-4265
él	-4266
▁either	-4267
mos	-4268
iving	-4269
ссии	-4270
▁lug	-4271
atory	-4272
ência	-4273
▁eth	-4274
▁relativ	-4275
▁发	-4276
pet	-4277
▁history	-4278
▁cou	-4279
▁nue	-4280
าก	-4281
▁commer	-4282
بي	-4283
▁representative	-4284
▁include	-4285
смот	-4286
ligt	-4287
▁killed	-4288
▁العام	-4289
▁points	-4290
▁bat	-4291
▁neces	-4292
eri	-4293
vision	-4294
▁wind	-4295
▁אני	-4296
▁tab	-4297
▁dag	-4298
ят	-4299
olit	-4300
▁月	-4301
▁cle	-4302
▁poz	-4303
ła	-4304
met	-4305
ula	-4306
▁outside	-4307
▁hebben	-4308
▁kat	-4309
عا	-4310
مو	-4311
▁story	-4312
бли	-4313
том	-4314
ey	-4315
йстви	-4316
▁bon	-4317
▁russia	-4318
▁oder	-4319
τό	-4320
▁music	-4321
▁january	-4322
imiento	-4323
ilo	-4324
▁ny	-4325
▁afric	-4326
гово	-4327
▁už	-4328
▁може	-4329
eless	-4330
▁considered	-4331
▁ле	-4332
▁corre	-4333
▁hall	-4334
ateral	-4335
uda	-4336
▁context	-4337
κε	-4338
عم	-4339
▁zn	-4340
uff	-4341
емы	-4342
▁minor	-4343
▁sort	-4344
▁fully	-4345
▁teach	-4346
ajo	-4347
▁kommer	-4348
▁exec	-4349
▁voted	-4350
▁זה	-4351
лове	-4352
▁gén	-4353
asti	-4354
▁cultural	-4355
▁sar	-4356
imm	-4357
▁einer	-4358
▁comiss	-4359
band	-4360
▁advan	-4361
▁ない	-4362
las	-4363
▁kid	-4364
valu	-4365
itting	-4366
uri	-4367
▁discrimin	-4368
▁costs	-4369
apt	-4370
▁wouldn	-4371
ются	-4372
ταν	-4373
▁einen	-4374
agy	-4375
▁kä	-4376
▁segu	-4377
nosti	-4378
▁đi	-4379
▁brought	-4380
▁nog	-4381
embre	-4382
ators	-4383
tage	-4384
кономи	-4385
▁trat	-4386
onse	-4387
konom	-4388
▁concerning	-4389
رت	-4390
more	-4391
▁news	-4392
▁rég	-4393
▁väl	-4394
▁2006	-4395
slag	-4396
▁wil	-4397
▁ю	-4398
▁hung	-4399
▁vast	-4400
▁това	-4401
▁الذ	-4402
unu	-4403
▁aber	-4404
▁frank	-4405
▁thus	-4406
▁onder	-4407
▁sho	-4408
кт	-4409
▁refuge	-4410
-19	-4411
▁می	-4412
▁former	-4413
▁method	-4414
▁ain	-4415
ply	-4416
▁euró	-4417
▁themselves	-4418
וא	-4419
▁solidar	-4420
ız	-4421
▁solution	-4422
▁обла	-4423
elles	-4424
▁results	-4425
▁laughter	-4426
▁wife	-4427
έπει	-4428
▁60	-4429
▁обра	-4430
▁pes	-4431
rie	-4432
▁chair	-4433
▁wenn	-4434
rå	-4435
▁prison	-4436
▁cand	-4437
▁detta	-4438
▁except	-4439
▁heeft	-4440
▁distrib	-4441
▁model	-4442
▁мож	-4443
دي	-4444
ony	-4445
▁space	-4446
▁seems	-4447
▁осуществ	-4448
▁financi	-4449
▁biz	-4450
▁august	-4451
▁letter	-4452
ending	-4453
sl	-4454
chte	-4455
▁essential	-4456
▁тре	-4457
▁cele	-4458
▁determin	-4459
iert	-4460
▁dad	-4461
▁方	-4462
▁amendment	-4463
ospod	-4464
▁demok	-4465
▁companies	-4466
▁prze	-4467
▁1991	-4468
кра	-4469
▁violence	-4470
head	-4471
▁estas	-4472
ší	-4473
▁cross	-4474
▁wur	-4475
ovan	-4476
▁received	-4477
▁sustainable	-4478
▁zd	-4479
atu	-4480
▁works	-4481
oint	-4482
▁cab	-4483
lio	-4484
▁други	-4485
▁projects	-4486
ược	-4487
▁akan	-4488
ení	-4489
▁ку	-4490
▁board	-4491
▁ще	-4492
▁writing	-4493
▁которые	-4494
▁hotel	-4495
off	-4496
▁nur	-4497
▁อง	-4498
▁же	-4499
▁wo	-4500
▁чтобы	-4501
▁green	-4502
uts	-4503
قر	-4504
▁previous	-4505
▁compr	-4506
illa	-4507
▁ты	-4508
ков	-4509
ăm	-4510
▁пла	-4511
▁esper	-4512
tin	-4513
▁لم	-4514
▁emph	-4515
▁μια	-4516
nem	-4517
ày	-4518
▁ult	-4519
▁actual	-4520
nek	-4521
ết	-4522
▁share	-4523
▁gam	-4524
fin	-4525
▁regions	-4526
▁iran	-4527
aring	-4528
▁internacional	-4529
hu	-4530
▁garant	-4531
áz	-4532
▁developed	-4533
enta	-4534
▁челове	-4535
▁上	-4536
▁dispos	-4537
▁hij	-4538
▁diese	-4539
▁self	-4540
▁lives	-4541
ίσ	-4542
▁gave	-4543
▁desarroll	-4544
▁الش	-4545
▁пунк	-4546
bil	-4547
orm	-4548
▁hours	-4549
юще	-4550
רי	-4551
пас	-4552
▁wasn	-4553
▁interests	-4554
isch	-4555
▁date	-4556
▁193	-4557
▁responsible	-4558
ную	-4559
▁hr	-4560
▁decisions	-4561
▁lack	-4562
arch	-4563
raf	-4564
ίν	-4565
سب	-4566
▁conflict	-4567
bert	-4568
▁politik	-4569
тру	-4570
▁म	-4571
▁mijn	-4572
itation	-4573
ρισ	-4574
▁altern	-4575
éri	-4576
▁iš	-4577
▁fast	-4578
▁ade	-4579
úng	-4580
▁täm	-4581
▁certainly	-4582
▁equip	-4583
▁있	-4584
▁proto	-4585
шения	-4586
дет	-4587
istic	-4588
car	-4589
▁guer	-4590
govern	-4591
▁ground	-4592
▁được	-4593
▁bos	-4594
▁building	-4595
▁standards	-4596
ulle	-4597
▁trust	-4598
▁cin	-4599
▁那	-4600
▁front	-4601
гда	-4602
▁experience	-4603
▁grund	-4604
uten	-4605
▁sense	-4606
▁мен	-4607
▁ako	-4608
ikan	-4609
▁todo	-4610
▁iraq	-4611
▁ø	-4612
▁hop	-4613
▁culture	-4614
hold	-4615
▁aby	-4616
▁achieve	-4617
▁precis	-4618
▁across	-4619
▁exer	-4620
▁danger	-4621
▁immedi	-4622
▁чи	-4623
▁rob	-4624
▁apa	-4625
ead	-4626
nic	-4627
eks	-4628
گه	-4629
▁vý	-4630
▁drink	-4631
▁quality	-4632
▁për	-4633
▁hell	-4634
▁portug	-4635
▁emp	-4636
nia	-4637
ière	-4638
forme	-4639
▁probably	-4640
ún	-4641
uter	-4642
▁knew	-4643
nik	-4644
ده	-4645
عت	-4646
eds	-4647
▁pack	-4648
óm	-4649
ρχ	-4650
▁ky	-4651
▁wants	-4652
▁estim	-4653
▁target	-4654
embros	-4655
▁appla	-4656
ald	-4657
▁emphas	-4658
▁principles	-4659
ension	-4660
ین	-4661
▁zá	-4662
▁ν	-4663
-0	-4664
aron	-4665
▁anche	-4666
ās	-4667
itarian	-4668
fen	-4669
▁relevant	-4670
ści	-4671
сли	-4672
▁maintain	-4673
▁behind	-4674
fully	-4675
▁febru	-4676
▁weap	-4677
vet	-4678
▁ship	-4679
▁leur	-4680
▁ανα	-4681
▁kra	-4682
▁„	-4683
▁status	-4684
▁gel	-4685
hol	-4686
▁lan	-4687
▁pag	-4688
чение	-4689
▁има	-4690
cel	-4691
fü	-4692
▁секре	-4693
▁return	-4694
▁criminal	-4695
خر	-4696
uth	-4697
ře	-4698
▁quando	-4699
▁política	-4700
▁easy	-4701
▁bere	-4702
▁blog	-4703
▁chance	-4704
▁crime	-4705
▁αλ	-4706
وي	-4707
▁35	-4708
▁application	-4709
lichen	-4710
▁&	-4711
▁instead	-4712
▁separ	-4713
oli	-4714
ār	-4715
▁white	-4716
▁hands	-4717
▁carry	-4718
کن	-4719
pi	-4720
ored	-4721
▁também	-4722
▁draw	-4723
▁לה	-4724
mental	-4725
▁μου	-4726
▁conven	-4727
▁هذه	-4728
รา	-4729
▁earth	-4730
σα	-4731
lik	-4732
▁gun	-4733
ại	-4734
▁ذلك	-4735
lj	-4736
net	-4737
▁leaders	-4738
▁٢	-4739
ieur	-4740
▁lui	-4741
▁study	-4742
▁team	-4743
мож	-4744
▁gree	-4745
▁行	-4746
▁приня	-4747
μά	-4748
▁required	-4749
▁satisf	-4750
▁μπο	-4751
▁إن	-4752
▁zam	-4753
ất	-4754
▁đã	-4755
▁territor	-4756
▁statement	-4757
▁spre	-4758
▁investment	-4759
вен	-4760
▁visit	-4761
▁2011	-4762
nej	-4763
▁haven	-4764
▁simply	-4765
aka	-4766
uy	-4767
بل	-4768
▁секрета	-4769
aires	-4770
▁eller	-4771
▁δι	-4772
▁необ	-4773
▁arab	-4774
pped	-4775
▁lid	-4776
▁ori	-4777
▁initiative	-4778
▁expla	-4779
▁agreed	-4780
▁ken	-4781
ium	-4782
iful	-4783
cias	-4784
nis	-4785
▁pover	-4786
▁gone	-4787
▁dengan	-4788
▁tel	-4789
▁durch	-4790
▁currently	-4791
▁lin	-4792
▁doctor	-4793
▁thinking	-4794
olu	-4795
▁地	-4796
▁mü	-4797
▁perf	-4798
-2	-4799
▁2005	-4800
▁language	-4801
mitted	-4802
ний	-4803
▁forget	-4804
alo	-4805
▁cust	-4806
pression	-4807
uted	-4808
▁hun	-4809
ême	-4810
▁tradition	-4811
حت	-4812
▁tik	-4813
рь	-4814
▁india	-4815
▁kita	-4816
ends	-4817
▁pov	-4818
iche	-4819
▁provisions	-4820
▁сове	-4821
▁agreements	-4822
▁полити	-4823
▁matters	-4824
▁anyone	-4825
▁organisation	-4826
▁sometimes	-4827
льта	-4828
ūs	-4829
▁і	-4830
▁١٩٩	-4831
irm	-4832
▁обеспе	-4833
▁ק	-4834
▁centre	-4835
▁daar	-4836
šan	-4837
▁mos	-4838
▁grande	-4839
ifica	-4840
▁euroopan	-4841
ctive	-4842
ضا	-4843
▁stru	-4844
ieren	-4845
nak	-4846
ไป	-4847
كل	-4848
трудни	-4849
▁game	-4850
▁changes	-4851
يه	-4852
▁tor	-4853
▁ком	-4854
▁persons	-4855
▁lond	-4856
ites	-4857
▁pretty	-4858
▁attack	-4859
ource	-4860
ney	-4861
▁nombre	-4862
▁أي	-4863
▁инфор	-4864
▁sad	-4865
▁probl	-4866
odo	-4867
▁génér	-4868
▁pil	-4869
lav	-4870
ariat	-4871
ouw	-4872
arm	-4873
erne	-4874
▁резо	-4875
▁señor	-4876
ché	-4877
▁mond	-4878
кой	-4879
ρώ	-4880
bier	-4881
▁zw	-4882
▁russian	-4883
рт	-4884
ición	-4885
▁minute	-4886
tes	-4887
τρο	-4888
▁工	-4889
▁sun	-4890
▁liberal	-4891
▁резолю	-4892
▁brother	-4893
ows	-4894
lan	-4895
▁sect	-4896
ден	-4897
hm	-4898
תי	-4899
▁εξ	-4900
сов	-4901
▁dévelop	-4902
▁improve	-4903
▁име	-4904
acy	-4905
▁concl	-4906
σι	-4907
▁jäs	-4908
chos	-4909
▁majority	-4910
▁attempt	-4911
▁联	-4912
▁dise	-4913
▁بود	-4914
▁κοι	-4915
▁ils	-4916
▁сред	-4917
▁само	-4918
▁sav	-4919
ัง	-4920
▁transfer	-4921
стра	-4922
ables	-4923
▁гра	-4924
▁hus	-4925
▁tip	-4926
▁congrat	-4927
rait	-4928
▁ps	-4929
▁الر	-4930
hi	-4931
▁необходи	-4932
▁sell	-4933
委员	-4934
▁goes	-4935
rig	-4936
aken	-4937
▁ন	-4938
▁check	-4939
ือ	-4940
▁occup	-4941
itate	-4942
лее	-4943
▁arrest	-4944
ature	-4945
די	-4946
bes	-4947
▁bin	-4948
št	-4949
اري	-4950
term	-4951
тел	-4952
▁coordination	-4953
▁deput	-4954
▁स	-4955
לי	-4956
▁ก	-4957
▁nuest	-4958
▁só	-4959
oz	-4960
▁wan	-4961
▁beautiful	-4962
▁sleep	-4963
▁divis	-4964
▁πρέπει	-4965
▁sed	-4966
пы	-4967
▁ment	-4968
htë	-4969
esi	-4970
lad	-4971
▁stri	-4972
▁fly	-4973
▁algun	-4974
委员会	-4975
▁спе	-4976
▁konk	-4977
▁colon	-4978
▁自	-4979
▁delegation	-4980
▁jer	-4981
▁45	-4982
▁objectives	-4983
▁kter	-4984
▁middle	-4985
üt	-4986
▁nå	-4987
▁ус	-4988
cut	-4989
▁promote	-4990
▁autres	-4991
▁کرد	-4992
ases	-4993
governmental	-4994
▁2001	-4995
▁radio	-4996
▁jok	-4997
cter	-4998
zet	-4999
▁neigh	-5000
▁immig	-5001
emo	-5002
▁poverty	-5003
▁regarding	-5004
▁mic	-5005
▁germany	-5006
▁kommissionen	-5007
▁私	-5008
▁dialogue	-5009
anti	-5010
iner	-5011
▁despite	-5012
▁annex	-5013
▁él	-5014
ış	-5015
uma	-5016
▁dari	-5017
just	-5018
γκ	-5019
stä	-5020
ffe	-5021
вро	-5022
zia	-5023
ands	-5024
عية	-5025
▁ту	-5026
ική	-5027
▁gran	-5028
▁экономи	-5029
▁сотрудни	-5030
▁additional	-5031
▁deux	-5032
keit	-5033
pra	-5034
▁competition	-5035
▁african	-5036
▁apro	-5037
akan	-5038
▁army	-5039
בר	-5040
▁related	-5041
▁fö	-5042
ého	-5043
▁lugar	-5044
cts	-5045
▁這	-5046
▁urg	-5047
าม	-5048
▁pict	-5049
cción	-5050
aster	-5051
▁政	-5052
▁constitu	-5053
▁nacional	-5054
▁stabil	-5055
▁camp	-5056
▁concerns	-5057
▁ktor	-5058
gov	-5059
tava	-5060
▁thous	-5061
зда	-5062
▁président	-5063
▁mist	-5064
▁labour	-5065
▁bis	-5066
▁couldn	-5067
αλ	-5068
▁excell	-5069
▁link	-5070
▁ukra	-5071
▁为	-5072
قا	-5073
▁esp	-5074
▁solo	-5075
▁purs	-5076
▁embar	-5077
чно	-5078
cur	-5079
▁protest	-5080
iction	-5081
▁focus	-5082
kk	-5083
▁bah	-5084
▁gib	-5085
▁iç	-5086
▁contr	-5087
▁whose	-5088
▁response	-5089
▁arb	-5090
▁chara	-5091
μό	-5092
στε	-5093
▁sia	-5094
ктив	-5095
▁observ	-5096
▁prem	-5097
sen	-5098
▁груп	-5099
▁gew	-5100
▁anda	-5101
вой	-5102
▁especial	-5103
coming	-5104
▁began	-5105
▁travel	-5106
▁bodies	-5107
вам	-5108
elm	-5109
▁2004	-5110
▁му	-5111
▁stan	-5112
▁moeten	-5113
▁congratul	-5114
▁gan	-5115
▁事	-5116
▁guys	-5117
▁faire	-5118
кти	-5119
▁га	-5120
öd	-5121
rol	-5122
▁الل	-5123
▁simple	-5124
emy	-5125
oph	-5126
▁tonight	-5127
▁ora	-5128
ortun	-5129
▁οπο	-5130
▁nep	-5131
▁представи	-5132
▁stress	-5133
ří	-5134
▁amount	-5135
кто	-5136
▁dol	-5137
นี	-5138
▁пи	-5139
iau	-5140
▁явля	-5141
▁diss	-5142
▁baby	-5143
cr	-5144
icit	-5145
lied	-5146
▁deep	-5147
▁anti	-5148
▁дея	-5149
▁mach	-5150
▁requirements	-5151
zz	-5152
▁infrast	-5153
▁ฉัน	-5154
▁tek	-5155
ën	-5156
så	-5157
▁дека	-5158
▁ov	-5159
▁acqu	-5160
▁아	-5161
▁θέ	-5162
шь	-5163
cn	-5164
εδ	-5165
▁table	-5166
ledge	-5167
emente	-5168
▁actions	-5169
▁movement	-5170
▁ast	-5171
▁最	-5172
▁asia	-5173
зво	-5174
adores	-5175
▁uno	-5176
arbe	-5177
▁reci	-5178
▁basic	-5179
▁przy	-5180
▁minim	-5181
▁правитель	-5182
سم	-5183
▁nost	-5184
▁80	-5185
▁takes	-5186
conóm	-5187
▁exem	-5188
▁increased	-5189
▁ngư	-5190
raid	-5191
▁harmon	-5192
▁nes	-5193
▁offic	-5194
▁february	-5195
▁paper	-5196
▁\	-5197
atie	-5198
▁也	-5199
encies	-5200
yer	-5201
رك	-5202
▁essere	-5203
har	-5204
▁того	-5205
▁british	-5206
hib	-5207
▁statist	-5208
▁ใ	-5209
▁rå	-5210
▁sistema	-5211
▁ম	-5212
▁tud	-5213
▁ас	-5214
ях	-5215
ık	-5216
▁κά	-5217
อย	-5218
▁são	-5219
▁cast	-5220
voj	-5221
ќе	-5222
▁彼	-5223
ops	-5224
▁пот	-5225
▁ul	-5226
▁iii	-5227
dra	-5228
▁autom	-5229
тся	-5230
▁य	-5231
▁created	-5232
▁span	-5233
▁phys	-5234
رار	-5235
▁standard	-5236
▁ย	-5237
▁développ	-5238
erve	-5239
▁好	-5240
ían	-5241
got	-5242
▁enf	-5243
ías	-5244
▁consideration	-5245
лы	-5246
▁included	-5247
▁qué	-5248
▁looks	-5249
▁humanitarian	-5250
ান	-5251
heit	-5252
▁согла	-5253
▁practice	-5254
▁202	-5255
θη	-5256
eto	-5257
▁прое	-5258
ām	-5259
▁要	-5260
▁afraid	-5261
▁égal	-5262
vy	-5263
▁levels	-5264
▁nation	-5265
▁died	-5266
▁noch	-5267
▁accordance	-5268
bel	-5269
ktor	-5270
мер	-5271
▁analys	-5272
اص	-5273
▁yhte	-5274
ivos	-5275
▁extern	-5276
▁century	-5277
▁turkey	-5278
▁bek	-5279
▁aspects	-5280
τική	-5281
▁они	-5282
▁mik	-5283
▁evalu	-5284
▁jot	-5285
▁reasons	-5286
וב	-5287
▁exch	-5288
▁farm	-5289
τικά	-5290
ander	-5291
▁fru	-5292
▁continued	-5293
▁europese	-5294
▁desarrollo	-5295
▁gj	-5296
bour	-5297
▁concept	-5298
▁ду	-5299
ev	-5300
▁информа	-5301
▁pada	-5302
quer	-5303
▁sla	-5304
▁الأمم	-5305
▁zum	-5306
бря	-5307
▁委员会	-5308
▁grant	-5309
▁comité	-5310
▁realiz	-5311
▁gö	-5312
▁jäsen	-5313
set	-5314
▁absolut	-5315
▁exactly	-5316
▁боль	-5317
verse	-5318
▁rid	-5319
▁arch	-5320
чения	-5321
▁jobs	-5322
ió	-5323
ology	-5324
▁segur	-5325
▁candid	-5326
▁leav	-5327
▁tend	-5328
▁beginning	-5329
▁hund	-5330
▁ја	-5331
▁captain	-5332
▁было	-5333
▁ned	-5334
▁chin	-5335
▁евро	-5336
▁ру	-5337
ological	-5338
▁også	-5339
▁utiliz	-5340
▁administrative	-5341
▁caus	-5342
▁objective	-5343
▁lisbon	-5344
▁מה	-5345
ấy	-5346
▁pick	-5347
▁nej	-5348
▁agricultural	-5349
vr	-5350
εις	-5351
igu	-5352
▁university	-5353
▁kaik	-5354
▁tex	-5355
▁gou	-5356
ні	-5357
▁percent	-5358
▁industrial	-5359
▁batt	-5360
▁comissão	-5361
bli	-5362
ęd	-5363
▁typ	-5364
ži	-5365
▁2012	-5366
ák	-5367
ense	-5368
▁cooper	-5369
stat	-5370
▁któ	-5371
▁rend	-5372
▁können	-5373
▁här	-5374
▁normal	-5375
▁communication	-5376
▁worry	-5377
▁chúng	-5378
▁pä	-5379
▁bem	-5380
▁traff	-5381
▁тех	-5382
plo	-5383
▁alb	-5384
▁đó	-5385
oven	-5386
▁everybody	-5387
μέν	-5388
▁dog	-5389
▁fram	-5390
▁dollars	-5391
ской	-5392
▁പ	-5393
ük	-5394
▁popular	-5395
▁commissione	-5396
▁sä	-5397
▁што	-5398
▁existing	-5399
▁participation	-5400
▁code	-5401
▁throughout	-5402
æn	-5403
▁mort	-5404
σω	-5405
▁elimin	-5406
dan	-5407
▁function	-5408
▁relat	-5409
▁administration	-5410
▁monet	-5411
liche	-5412
▁verb	-5413
▁desde	-5414
▁series	-5415
▁спо	-5416
▁sold	-5417
▁безо	-5418
▁жен	-5419
▁hin	-5420
▁regular	-5421
عي	-5422
▁dear	-5423
▁؛	-5424
▁spir	-5425
▁vra	-5426
▁полож	-5427
issions	-5428
▁52	-5429
▁mehr	-5430
зова	-5431
▁tap	-5432
▁arrang	-5433
▁vin	-5434
aba	-5435
▁económ	-5436
▁limit	-5437
▁campa	-5438
▁poc	-5439
λογ	-5440
وج	-5441
▁complex	-5442
▁já	-5443
▁cum	-5444
▁bū	-5445
▁kell	-5446
▁cham	-5447
μη	-5448
voir	-5449
فت	-5450
▁sym	-5451
▁capacity	-5452
▁2013	-5453
▁type	-5454
▁unfortun	-5455
▁47	-5456
▁vad	-5457
▁rate	-5458
tra	-5459
ผม	-5460
ثل	-5461
▁mayor	-5462
▁representatives	-5463
iveness	-5464
ului	-5465
▁engag	-5466
▁mentioned	-5467
▁knows	-5468
เป	-5469
aren	-5470
▁muito	-5471
▁permanent	-5472
لم	-5473
▁swe	-5474
▁colleag	-5475
▁wall	-5476
alah	-5477
plom	-5478
son	-5479
нных	-5480
▁деятель	-5481
▁nik	-5482
▁будет	-5483
▁eyes	-5484
inten	-5485
▁ihr	-5486
▁hosp	-5487
ните	-5488
▁director	-5489
▁band	-5490
▁obvious	-5491
▁prefer	-5492
emi	-5493
iser	-5494
ensk	-5495
▁apply	-5496
▁mc	-5497
▁value	-5498
▁discrimination	-5499
▁هي	-5500
▁بش	-5501
▁billion	-5502
▁проце	-5503
abe	-5504
▁export	-5505
iera	-5506
▁た	-5507
bers	-5508
лей	-5509
ских	-5510
▁undert	-5511
▁eat	-5512
▁porque	-5513
▁conseil	-5514
▁criter	-5515
▁hig	-5516
▁kil	-5517
▁commissie	-5518
yr	-5519
جنة	-5520
ex	-5521
▁ped	-5522
▁spra	-5523
▁并	-5524
▁επί	-5525
▁naciones	-5526
اني	-5527
▁evrop	-5528
▁quer	-5529
ώς	-5530
▁ning	-5531
▁comment	-5532
تون	-5533
▁aware	-5534
▁ꆣ	-5535
▁sú	-5536
▁extremely	-5537
▁公	-5538
igo	-5539
▁poder	-5540
ivi	-5541
iri	-5542
isia	-5543
▁operations	-5544
▁belie	-5545
kov	-5546
▁המ	-5547
طة	-5548
▁פ	-5549
▁như	-5550
.000	-5551
▁buy	-5552
▁element	-5553
cra	-5554
σο	-5555
▁priority	-5556
▁কর	-5557
▁potential	-5558
▁rus	-5559
▁người	-5560
▁song	-5561
шение	-5562
▁måste	-5563
▁integration	-5564
нан	-5565
▁gaz	-5566
umu	-5567
▁guess	-5568
▁repr	-5569
owa	-5570
▁cuando	-5571
▁gör	-5572
▁sport	-5573
▁مت	-5574
osten	-5575
▁пробле	-5576
▁adoption	-5577
ادة	-5578
ilor	-5579
▁уча	-5580
▁illeg	-5581
▁الى	-5582
▁dette	-5583
▁perfect	-5584
isesti	-5585
ski	-5586
сы	-5587
▁surpr	-5588
liga	-5589
▁carried	-5590
лько	-5591
▁summit	-5592
▁mun	-5593
▁phil	-5594
ματα	-5595
▁nuk	-5596
gn	-5597
▁markets	-5598
▁kaj	-5599
▁himself	-5600
▁ευρω	-5601
▁économ	-5602
▁ways	-5603
▁truth	-5604
del	-5605
▁vai	-5606
▁tried	-5607
oms	-5608
▁états	-5609
aya	-5610
▁instruments	-5611
▁flex	-5612
▁特	-5613
▁apart	-5614
▁concent	-5615
▁بد	-5616
▁inclus	-5617
istas	-5618
▁поддер	-5619
▁authority	-5620
▁stability	-5621
iny	-5622
▁medic	-5623
▁chap	-5624
▁natur	-5625
▁respond	-5626
ło	-5627
▁akt	-5628
ule	-5629
▁ത	-5630
▁voc	-5631
hta	-5632
▁video	-5633
▁aussi	-5634
▁fear	-5635
jas	-5636
enz	-5637
osed	-5638
▁দ	-5639
nych	-5640
риа	-5641
▁diplom	-5642
▁toim	-5643
če	-5644
▁rapid	-5645
▁journal	-5646
▁naar	-5647
uck	-5648
▁sik	-5649
▁51	-5650
light	-5651
▁2003	-5652
▁commitment	-5653
▁безопас	-5654
▁weapons	-5655
▁dhe	-5656
▁tanto	-5657
▁austral	-5658
▁applause	-5659
▁što	-5660
▁تن	-5661
▁proces	-5662
▁tous	-5663
▁ав	-5664
▁occas	-5665
▁zou	-5666
▁europeo	-5667
action	-5668
τικό	-5669
▁แล	-5670
▁@	-5671
▁unidas	-5672
▁foot	-5673
▁revis	-5674
▁quickly	-5675
▁ха	-5676
ání	-5677
▁mož	-5678
▁worked	-5679
▁следу	-5680
▁challeng	-5681
▁оста	-5682
الي	-5683
▁вклю	-5684
▁informe	-5685
cies	-5686
тельно	-5687
▁500	-5688
ück	-5689
ϊκ	-5690
gram	-5691
ėl	-5692
▁price	-5693
▁trong	-5694
▁recently	-5695
▁تم	-5696
ši	-5697
onte	-5698
▁области	-5699
▁consejo	-5700
▁inside	-5701
▁learn	-5702
▁す	-5703
iale	-5704
wor	-5705
▁labor	-5706
▁fisher	-5707
▁när	-5708
▁الك	-5709
▁stage	-5710
▁relationship	-5711
hmen	-5712
tal	-5713
▁år	-5714
▁bey	-5715
ány	-5716
arios	-5717
▁mex	-5718
τί	-5719
▁relating	-5720
ail	-5721
▁gem	-5722
ativa	-5723
▁доб	-5724
▁partner	-5725
▁lord	-5726
▁kir	-5727
▁dich	-5728
▁guaran	-5729
ทํา	-5730
▁där	-5731
▁kore	-5732
ديد	-5733
yorum	-5734
▁prepared	-5735
▁luck	-5736
▁را	-5737
▁principal	-5738
▁advis	-5739
gel	-5740
▁191	-5741
▁mons	-5742
▁même	-5743
vu	-5744
▁hem	-5745
▁gy	-5746
▁которо	-5747
▁meetings	-5748
idel	-5749
▁développement	-5750
reh	-5751
▁vš	-5752
▁·	-5753
nah	-5754
ของ	-5755
▁¡	-5756
▁70	-5757
▁问	-5758
ющие	-5759
▁worth	-5760
▁els	-5761
поль	-5762
▁deg	-5763
▁expressed	-5764
itable	-5765
▁était	-5766
▁obst	-5767
دة	-5768
▁ευρωπα	-5769
zioni	-5770
دار	-5771
pose	-5772
▁2002	-5773
▁guarantee	-5774
▁restrict	-5775
сно	-5776
ره	-5777
gin	-5778
▁关	-5779
▁æ	-5780
▁rural	-5781
▁гово	-5782
лага	-5783
▁фа	-5784
zą	-5785
ront	-5786
▁demokrat	-5787
▁tribun	-5788
▁nun	-5789
▁出	-5790
▁ball	-5791
vas	-5792
▁discussion	-5793
▁murder	-5794
▁weeks	-5795
▁procedures	-5796
▁يت	-5797
циональ	-5798
▁mereka	-5799
▁waiting	-5800
▁më	-5801
▁announ	-5802
▁cô	-5803
107	-5804
شت	-5805
▁она	-5806
ến	-5807
θεί	-5808
▁anni	-5809
▁90	-5810
▁efter	-5811
▁rein	-5812
▁ר	-5813
▁gospod	-5814
▁skulle	-5815
▁perspect	-5816
icien	-5817
▁married	-5818
itude	-5819
▁κατα	-5820
osa	-5821
▁elections	-5822
uste	-5823
▁таки	-5824
▁цен	-5825
▁但	-5826
pond	-5827
νω	-5828
lems	-5829
▁një	-5830
▁00	-5831
ív	-5832
ünk	-5833
lier	-5834
▁conv	-5835
▁进	-5836
▁blood	-5837
▁einem	-5838
▁drug	-5839
▁islam	-5840
▁également	-5841
▁federal	-5842
ný	-5843
▁zap	-5844
▁science	-5845
ény	-5846
▁将	-5847
ait	-5848
gement	-5849
▁estado	-5850
εια	-5851
▁μας	-5852
▁recommendations	-5853
▁nobody	-5854
▁droits	-5855
цию	-5856
▁περι	-5857
▁muy	-5858
▁declaration	-5859
▁прои	-5860
ěl	-5861
10722	-5862
▁20210722	-5863
▁cz	-5864
▁derechos	-5865
▁gouvern	-5866
έρ	-5867
hic	-5868
ós	-5869
▁fix	-5870
▁kunnen	-5871
▁posit	-5872
▁peu	-5873
▁mant	-5874
elling	-5875
▁ric	-5876
▁vac	-5877
▁squ	-5878
▁modo	-5879
▁بين	-5880
▁host	-5881
▁cell	-5882
joy	-5883
inian	-5884
jon	-5885
▁mé	-5886
▁independent	-5887
▁popul	-5888
imb	-5889
▁ata	-5890
נה	-5891
▁grupo	-5892
▁تع	-5893
▁ava	-5894
chten	-5895
▁হ	-5896
▁ign	-5897
▁contribution	-5898
urch	-5899
▁dieser	-5900
asa	-5901
▁pris	-5902
ré	-5903
rian	-5904
▁与	-5905
▁provision	-5906
biamo	-5907
שה	-5908
▁peut	-5909
hat	-5910
▁sö	-5911
osta	-5912
▁için	-5913
▁aver	-5914
▁าง	-5915
▁oil	-5916
ws	-5917
حة	-5918
▁achieved	-5919
тя	-5920
▁character	-5921
كون	-5922
▁到	-5923
▁deliver	-5924
iamo	-5925
▁correct	-5926
ây	-5927
▁ג	-5928
▁funding	-5929
▁save	-5930
uar	-5931
ρού	-5932
▁paris	-5933
соб	-5934
cl	-5935
▁ส	-5936
▁jsem	-5937
▁secretariat	-5938
onia	-5939
ución	-5940
▁возмож	-5941
самбле	-5942
рио	-5943
▁vá	-5944
▁external	-5945
▁geme	-5946
▁refugees	-5947
▁vr	-5948
▁gobier	-5949
▁33	-5950
▁denne	-5951
▁ассамбле	-5952
book	-5953
▁aren	-5954
▁الط	-5955
преде	-5956
▁commercial	-5957
është	-5958
▁programa	-5959
ères	-5960
ogo	-5961
▁quel	-5962
▁wit	-5963
نت	-5964
▁що	-5965
▁disk	-5966
▁نه	-5967
-199	-5968
▁moet	-5969
mis	-5970
▁σχ	-5971
▁الذي	-5972
▁联合	-5973
▁monitoring	-5974
▁sele	-5975
▁vas	-5976
jan	-5977
▁会议	-5978
▁años	-5979
oston	-5980
inā	-5981
fol	-5982
▁questa	-5983
▁agencies	-5984
cket	-5985
▁человека	-5986
▁مش	-5987
▁32	-5988
▁agriculture	-5989
▁hundred	-5990
▁созда	-5991
▁bure	-5992
▁scientific	-5993
▁así	-5994
▁36	-5995
▁completely	-5996
cise	-5997
▁parts	-5998
▁është	-5999
дно	-6000
▁финан	-6001
▁осно	-6002
▁ahead	-6003
је	-6004
ért	-6005
▁termin	-6006
▁caso	-6007
▁benefit	-6008
▁repla	-6009
▁ovat	-6010
pla	-6011
ukan	-6012
▁membres	-6013
▁был	-6014
▁treatment	-6015
äng	-6016
▁giving	-6017
ρή	-6018
▁或	-6019
▁知	-6020
ppo	-6021
iano	-6022
▁plans	-6023
▁въ	-6024
▁исполь	-6025
▁monsieur	-6026
▁kingdom	-6027
▁equal	-6028
▁accident	-6029
▁patient	-6030
▁operation	-6031
τυ	-6032
alla	-6033
▁últ	-6034
uc	-6035
▁street	-6036
▁len	-6037
▁полу	-6038
▁்	-6039
▁问题	-6040
▁وأ	-6041
▁الان	-6042
▁enjoy	-6043
▁cada	-6044
▁hvor	-6045
esc	-6046
▁eight	-6047
▁sido	-6048
▁им	-6049
ugos	-6050
ната	-6051
εται	-6052
▁agency	-6053
▁soll	-6054
▁этой	-6055
▁excuse	-6056
▁fest	-6057
▁medlems	-6058
▁ngh	-6059
▁repe	-6060
▁guard	-6061
▁ry	-6062
▁puede	-6063
arse	-6064
▁نمي	-6065
lim	-6066
▁mundo	-6067
ום	-6068
uni	-6069
▁section	-6070
▁более	-6071
izi	-6072
вает	-6073
▁тем	-6074
▁הא	-6075
▁western	-6076
oor	-6077
anie	-6078
▁över	-6079
▁från	-6080
▁network	-6081
▁phot	-6082
▁difer	-6083
uan	-6084
▁convin	-6085
▁pró	-6086
цион	-6087
▁wordt	-6088
▁written	-6089
▁message	-6090
ued	-6091
ības	-6092
ải	-6093
enen	-6094
▁tras	-6095
▁الث	-6096
isto	-6097
ظر	-6098
▁ση	-6099
ias	-6100
▁destro	-6101
pat	-6102
reci	-6103
مية	-6104
لب	-6105
▁ekonom	-6106
▁accoun	-6107
▁bru	-6108
▁personnel	-6109
▁dok	-6110
▁orient	-6111
▁nella	-6112
gang	-6113
iled	-6114
▁blev	-6115
nings	-6116
▁myös	-6117
▁ζ	-6118
логи	-6119
▁få	-6120
▁prz	-6121
ją	-6122
erna	-6123
▁ly	-6124
▁surv	-6125
▁cha	-6126
▁plen	-6127
вых	-6128
▁حال	-6129
▁κατά	-6130
▁effects	-6131
▁voorz	-6132
ktion	-6133
سة	-6134
ço	-6135
uti	-6136
▁lady	-6137
ball	-6138
▁都	-6139
zd	-6140
▁много	-6141
▁contact	-6142
อก	-6143
▁purpose	-6144
▁доклад	-6145
pen	-6146
▁قد	-6147
▁stati	-6148
▁london	-6149
лия	-6150
ök	-6151
▁ευρωπαϊκ	-6152
osto	-6153
50	-6154
▁establishment	-6155
▁ќе	-6156
▁që	-6157
▁reached	-6158
ון	-6159
part	-6160
νομ	-6161
▁argument	-6162
iam	-6163
▁claim	-6164
▁yap	-6165
▁wurde	-6166
ского	-6167
▁ihre	-6168
▁经	-6169
▁ます	-6170
▁各	-6171
وس	-6172
عض	-6173
▁kok	-6174
▁seven	-6175
ched	-6176
▁53	-6177
▁consist	-6178
ческих	-6179
▁bang	-6180
blica	-6181
▁department	-6182
▁ά	-6183
прави	-6184
▁rum	-6185
▁higher	-6186
▁́	-6187
▁prá	-6188
▁vig	-6189
▁miembros	-6190
▁européenne	-6191
ер	-6192
▁буду	-6193
tte	-6194
▁prost	-6195
ēr	-6196
ψη	-6197
▁прав	-6198
itz	-6199
▁libert	-6200
the	-6201
▁problema	-6202
▁zal	-6203
▁changed	-6204
▁categ	-6205
шении	-6206
▁interp	-6207
▁ها	-6208
yal	-6209
▁events	-6210
▁mam	-6211
iet	-6212
.6	-6213
ícul	-6214
rer	-6215
▁george	-6216
▁há	-6217
▁girls	-6218
put	-6219
дела	-6220
▁samo	-6221
▁pú	-6222
▁regime	-6223
ário	-6224
▁nic	-6225
▁国家	-6226
▁connection	-6227
▁shit	-6228
▁paul	-6229
acht	-6230
▁стать	-6231
▁بي	-6232
нию	-6233
ijd	-6234
▁реги	-6235
▁ska	-6236
ris	-6237
صل	-6238
▁isso	-6239
▁sis	-6240
قط	-6241
imas	-6242
▁câ	-6243
imos	-6244
▁các	-6245
▁jack	-6246
▁stato	-6247
uden	-6248
מה	-6249
▁sac	-6250
▁clean	-6251
▁describ	-6252
▁unfortunately	-6253
oma	-6254
▁报	-6255
atever	-6256
ark	-6257
▁europäischen	-6258
теля	-6259
▁calls	-6260
ously	-6261
rod	-6262
▁campaign	-6263
▁documents	-6264
▁ded	-6265
▁reduce	-6266
▁我们	-6267
▁工作	-6268
فة	-6269
produ	-6270
▁station	-6271
▁glad	-6272
▁пол	-6273
▁2015	-6274
▁свои	-6275
▁knowledge	-6276
▁somebody	-6277
▁hang	-6278
▁뫍	-6279
ход	-6280
▁published	-6281
ceptable	-6282
▁而	-6283
▁whatever	-6284
▁ん	-6285
τος	-6286
▁accom	-6287
āk	-6288
λή	-6289
▁很	-6290
▁complete	-6291
▁primer	-6292
▁territory	-6293
τητα	-6294
▁parents	-6295
▁mej	-6296
olitik	-6297
arily	-6298
▁task	-6299
▁infrastruct	-6300
estic	-6301
▁什	-6302
▁slow	-6303
▁olen	-6304
▁त	-6305
▁supported	-6306
▁solidarity	-6307
▁objet	-6308
▁kel	-6309
▁tö	-6310
▁ві	-6311
▁appoint	-6312
▁launch	-6313
bal	-6314
▁право	-6315
▁prav	-6316
▁balance	-6317
äsident	-6318
▁felt	-6319
▁egypt	-6320
▁bord	-6321
ví	-6322
ικό	-6323
zel	-6324
▁huh	-6325
▁submitted	-6326
▁victims	-6327
▁tul	-6328
▁usa	-6329
▁fuer	-6330
▁forest	-6331
▁legislative	-6332
▁execut	-6333
▁beyond	-6334
▁regulations	-6335
▁र	-6336
▁train	-6337
▁disse	-6338
▁nord	-6339
▁34	-6340
ná	-6341
▁برا	-6342
▁инте	-6343
▁paid	-6344
▁mark	-6345
▁firm	-6346
три	-6347
▁}	-6348
yi	-6349
▁tempo	-6350
▁vie	-6351
▁evidence	-6352
▁гла	-6353
▁cá	-6354
▁closed	-6355
ivel	-6356
ět	-6357
▁chem	-6358
▁tempor	-6359
▁ia	-6360
лись	-6361
หม	-6362
стве	-6363
▁creation	-6364
หน	-6365
gency	-6366
▁meer	-6367
▁reduc	-6368
▁active	-6369
▁direction	-6370
▁hurt	-6371
▁resolutions	-6372
onder	-6373
▁enterpr	-6374
▁heav	-6375
▁были	-6376
▁built	-6377
▁proceed	-6378
▁nego	-6379
▁她	-6380
▁ire	-6381
kes	-6382
rä	-6383
▁antes	-6384
idän	-6385
don	-6386
kat	-6387
▁være	-6388
▁aument	-6389
▁allowed	-6390
▁plat	-6391
ีย	-6392
وف	-6393
▁exchange	-6394
▁法	-6395
▁mobil	-6396
▁segund	-6397
cal	-6398
▁round	-6399
utta	-6400
hood	-6401
▁tako	-6402
hin	-6403
▁作	-6404
bud	-6405
▁remains	-6406
יל	-6407
ını	-6408
▁wid	-6409
laus	-6410
osti	-6411
ρέ	-6412
▁politique	-6413
▁chinese	-6414
▁husband	-6415
oh	-6416
лов	-6417
▁37	-6418
▁compreh	-6419
▁vl	-6420
▁andere	-6421
ierung	-6422
ares	-6423
▁pit	-6424
▁кра	-6425
ding	-6426
▁imper	-6427
▁smo	-6428
▁下	-6429
isin	-6430
iš	-6431
خت	-6432
ıl	-6433
▁действи	-6434
ках	-6435
illä	-6436
▁online	-6437
▁frem	-6438
▁bureau	-6439
ará	-6440
▁если	-6441
▁lou	-6442
▁esto	-6443
▁incor	-6444
рабо	-6445
▁critic	-6446
▁gain	-6447
▁случа	-6448
▁kui	-6449
▁hospital	-6450
endre	-6451
ξη	-6452
amb	-6453
▁voi	-6454
▁全	-6455
▁forms	-6456
▁٣	-6457
قل	-6458
▁cad	-6459
▁trouble	-6460
▁partnership	-6461
chi	-6462
▁trabal	-6463
▁важ	-6464
íst	-6465
▁attra	-6466
lut	-6467
▁syst	-6468
▁combat	-6469
▁humanos	-6470
▁ourselves	-6471
▁stated	-6472
▁meng	-6473
▁proje	-6474
▁addressed	-6475
▁unione	-6476
▁này	-6477
▁values	-6478
▁gesch	-6479
شر	-6480
▁сша	-6481
▁אות	-6482
▁unie	-6483
aki	-6484
▁institu	-6485
▁2014	-6486
▁consumers	-6487
▁gotta	-6488
▁jako	-6489
▁spee	-6490
▁ada	-6491
▁ons	-6492
▁ace	-6493
▁excellent	-6494
▁ακ	-6495
▁ات	-6496
▁प	-6497
elijke	-6498
▁lavor	-6499
ững	-6500
uen	-6501
▁club	-6502
▁cui	-6503
char	-6504
enty	-6505
angan	-6506
▁equipment	-6507
esterd	-6508
▁ξ	-6509
▁mainten	-6510
▁主	-6511
▁безопасности	-6512
▁়	-6513
▁với	-6514
▁году	-6515
▁reported	-6516
τροπ	-6517
▁unser	-6518
▁circum	-6519
ному	-6520
▁chairman	-6521
▁rou	-6522
▁ι	-6523
isme	-6524
▁gover	-6525
▁lig	-6526
▁walk	-6527
▁iv	-6528
▁regist	-6529
▁opportunities	-6530
став	-6531
▁jim	-6532
рии	-6533
▁rac	-6534
τέ	-6535
▁professional	-6536
ικά	-6537
▁doubt	-6538
▁crucial	-6539
▁structure	-6540
▁premi	-6541
▁προσ	-6542
▁pressure	-6543
▁rene	-6544
▁sop	-6545
employ	-6546
▁quant	-6547
js	-6548
▁assem	-6549
▁kids	-6550
▁sunt	-6551
▁wanna	-6552
▁quar	-6553
дова	-6554
▁dalam	-6555
▁来	-6556
▁δη	-6557
▁unión	-6558
iki	-6559
ży	-6560
▁những	-6561
▁مج	-6562
▁связи	-6563
▁vida	-6564
▁необходимо	-6565
▁zwe	-6566
inda	-6567
▁oli	-6568
▁nut	-6569
unto	-6570
▁пове	-6571
▁hacer	-6572
▁страна	-6573
ware	-6574
,5	-6575
▁geen	-6576
▁pir	-6577
▁živ	-6578
▁syn	-6579
rote	-6580
▁ideas	-6581
▁vehic	-6582
▁search	-6583
▁afgh	-6584
▁planning	-6585
ähr	-6586
sti	-6587
enas	-6588
enge	-6589
▁υπο	-6590
▁sau	-6591
▁сооб	-6592
ิด	-6593
▁развития	-6594
▁ones	-6595
δο	-6596
▁charter	-6597
▁sí	-6598
дол	-6599
▁exclus	-6600
pad	-6601
▁ring	-6602
▁consequences	-6603
▁ś	-6604
▁terrorism	-6605
far	-6606
▁tiene	-6607
หร	-6608
▁jet	-6609
▁ס	-6610
▁맺	-6611
rent	-6612
▁אי	-6613
▁besch	-6614
alled	-6615
bed	-6616
▁sẽ	-6617
▁momento	-6618
rei	-6619
▁こと	-6620
▁国际	-6621
▁discover	-6622
ступ	-6623
▁pelo	-6624
▁αλλά	-6625
▁mě	-6626
amiento	-6627
▁değ	-6628
▁fellow	-6629
▁consumer	-6630
рта	-6631
▁prest	-6632
gia	-6633
كان	-6634
▁nort	-6635
した	-6636
▁وم	-6637
▁są	-6638
▁tort	-6639
▁应	-6640
▁park	-6641
cin	-6642
▁ее	-6643
▁ireland	-6644
▁signed	-6645
▁yesterd	-6646
▁して	-6647
▁время	-6648
اه	-6649
▁ги	-6650
▁تح	-6651
▁ض	-6652
▁tool	-6653
ians	-6654
▁yesterday	-6655
▁limited	-6656
rid	-6657
▁belang	-6658
▁ran	-6659
ahr	-6660
▁без	-6661
▁jes	-6662
▁如	-6663
▁presented	-6664
▁zus	-6665
ason	-6666
▁consid	-6667
fo	-6668
▁分	-6669
czy	-6670
▁quanto	-6671
comes	-6672
▁ná	-6673
▁ně	-6674
ssä	-6675
▁사	-6676
▁flight	-6677
▁powers	-6678
wan	-6679
▁protocol	-6680
eur	-6681
▁بل	-6682
▁عام	-6683
▁appreci	-6684
▁nag	-6685
uls	-6686
▁relation	-6687
amen	-6688
▁scre	-6689
ssen	-6690
ję	-6691
▁lic	-6692
▁gold	-6693
ছে	-6694
▁waste	-6695
ều	-6696
▁association	-6697
▁sehr	-6698
▁providing	-6699
enh	-6700
eln	-6701
▁联合国	-6702
▁loro	-6703
▁gol	-6704
▁challenges	-6705
owe	-6706
▁bay	-6707
kte	-6708
ération	-6709
▁entit	-6710
▁hvad	-6711
ней	-6712
kö	-6713
lah	-6714
lies	-6715
▁kõ	-6716
▁46	-6717
ți	-6718
▁interpret	-6719
▁imposs	-6720
▁finans	-6721
ình	-6722
fri	-6723
▁organisations	-6724
سل	-6725
▁provides	-6726
кта	-6727
▁encon	-6728
▁cold	-6729
▁paci	-6730
▁之	-6731
wise	-6732
▁richt	-6733
▁sovi	-6734
▁决	-6735
enza	-6736
▁هنا	-6737
שי	-6738
▁ني	-6739
راء	-6740
рі	-6741
insi	-6742
uel	-6743
▁ér	-6744
▁reality	-6745
▁kü	-6746
ovat	-6747
▁{	-6748
▁consens	-6749
▁church	-6750
▁committed	-6751
▁arms	-6752
▁женщи	-6753
▁successful	-6754
▁té	-6755
kar	-6756
▁phone	-6757
▁loss	-6758
▁sak	-6759
▁enlar	-6760
nit	-6761
▁soft	-6762
▁предо	-6763
uh	-6764
bles	-6765
τού	-6766
▁αυτή	-6767
▁والم	-6768
cze	-6769
uz	-6770
▁perí	-6771
▁ต	-6772
▁jug	-6773
▁prima	-6774
▁fle	-6775
▁finance	-6776
▁كل	-6777
▁adequ	-6778
▁член	-6779
▁laws	-6780
▁engine	-6781
▁sme	-6782
▁通	-6783
øre	-6784
тро	-6785
▁collabor	-6786
γο	-6787
▁born	-6788
▁دا	-6789
ped	-6790
습니다	-6791
lands	-6792
jí	-6793
▁medical	-6794
امج	-6795
▁initiatives	-6796
zī	-6797
▁192	-6798
▁cuest	-6799
▁ไม	-6800
ίζ	-6801
▁هست	-6802
▁italy	-6803
▁بعد	-6804
ไร	-6805
▁shoot	-6806
▁manif	-6807
тра	-6808
▁absolutely	-6809
▁occur	-6810
▁rates	-6811
▁acord	-6812
▁ć	-6813
βα	-6814
▁vul	-6815
▁arvo	-6816
ούν	-6817
▁couple	-6818
▁shut	-6819
▁internationale	-6820
▁wi	-6821
▁38	-6822
▁وب	-6823
▁shot	-6824
70	-6825
▁多	-6826
▁bak	-6827
▁competit	-6828
iles	-6829
area	-6830
app	-6831
▁join	-6832
▁ví	-6833
▁ട	-6834
▁成	-6835
▁content	-6836
▁annual	-6837
tare	-6838
▁lí	-6839
▁vet	-6840
▁报告	-6841
ρία	-6842
bet	-6843
▁tā	-6844
▁supposed	-6845
▁может	-6846
ком	-6847
▁transparency	-6848
▁anc	-6849
▁supply	-6850
esa	-6851
▁kin	-6852
▁dream	-6853
▁рассмот	-6854
inger	-6855
▁propri	-6856
iku	-6857
▁fost	-6858
▁làm	-6859
quent	-6860
▁numer	-6861
▁eh	-6862
▁page	-6863
▁permit	-6864
▁основ	-6865
▁คุณ	-6866
▁300	-6867
▁čo	-6868
ให	-6869
▁перио	-6870
▁formand	-6871
▁prices	-6872
▁mie	-6873
▁ciud	-6874
gas	-6875
▁vice	-6876
hed	-6877
▁42	-6878
кон	-6879
▁demonstr	-6880
▁promotion	-6881
▁boys	-6882
mission	-6883
▁twe	-6884
▁cual	-6885
rá	-6886
ilateral	-6887
ферен	-6888
▁٤	-6889
▁παρα	-6890
▁tribunal	-6891
▁говори	-6892
▁พ	-6893
▁hanno	-6894
▁kw	-6895
▁todas	-6896
▁อย	-6897
مكن	-6898
▁sources	-6899
▁подго	-6900
мента	-6901
ills	-6902
▁על	-6903
▁corres	-6904
▁rock	-6905
wick	-6906
▁♫	-6907
وش	-6908
▁très	-6909
▁casa	-6910
▁gene	-6911
ford	-6912
▁στι	-6913
▁ở	-6914
▁ی	-6915
▁کار	-6916
▁этого	-6917
▁yo	-6918
▁lors	-6919
▁gd	-6920
▁naz	-6921
▁настоя	-6922
▁py	-6923
ίες	-6924
ffen	-6925
▁released	-6926
▁medidas	-6927
▁raised	-6928
γμα	-6929
วก	-6930
▁安	-6931
▁guerra	-6932
▁substant	-6933
amme	-6934
▁stock	-6935
▁transition	-6936
▁çok	-6937
ibilities	-6938
ål	-6939
anza	-6940
iciency	-6941
▁没	-6942
iting	-6943
ện	-6944
▁où	-6945
▁expert	-6946
▁computer	-6947
เข	-6948
▁spanish	-6949
inte	-6950
▁уров	-6951
▁shows	-6952
▁thể	-6953
▁ainsi	-6954
▁reading	-6955
▁deve	-6956
▁πολι	-6957
▁специаль	-6958
▁choice	-6959
▁transl	-6960
ép	-6961
▁لت	-6962
jes	-6963
▁lah	-6964
pir	-6965
▁yugos	-6966
▁prod	-6967
fa	-6968
▁evening	-6969
itas	-6970
cri	-6971
▁interesting	-6972
▁europeia	-6973
▁sans	-6974
▁cohes	-6975
aught	-6976
▁crazy	-6977
▁reduction	-6978
▁nin	-6979
▁müssen	-6980
▁stuff	-6981
▁мне	-6982
▁transform	-6983
▁تا	-6984
rate	-6985
▁права	-6986
▁oly	-6987
▁norm	-6988
bag	-6989
atori	-6990
▁andre	-6991
▁circumst	-6992
▁gets	-6993
ßen	-6994
lé	-6995
публи	-6996
▁националь	-6997
aries	-6998
▁ost	-6999
▁afghan	-7000
ifs	-7001
▁illegal	-7002
jud	-7003
▁capt	-7004
صاد	-7005
pping	-7006
▁非	-7007
▁preoc	-7008
ēt	-7009
▁さ	-7010
▁degli	-7011
ύρι	-7012
▁kot	-7013
▁contributions	-7014
▁sand	-7015
▁المن	-7016
ingu	-7017
▁над	-7018
▁ust	-7019
▁division	-7020
▁regret	-7021
▁comprehensive	-7022
gers	-7023
▁formul	-7024
▁неко	-7025
▁生	-7026
ść	-7027
▁nek	-7028
تها	-7029
▁председа	-7030
▁assessment	-7031
▁domin	-7032
▁version	-7033
▁sufficient	-7034
lant	-7035
ată	-7036
▁psych	-7037
▁sitting	-7038
iai	-7039
▁ön	-7040
▁vital	-7041
▁уч	-7042
agen	-7043
▁contract	-7044
▁debt	-7045
▁apoy	-7046
▁requested	-7047
▁والت	-7048
лан	-7049
▁intér	-7050
▁inclu	-7051
▁被	-7052
ığ	-7053
▁44	-7054
▁доку	-7055
▁belong	-7056
▁viel	-7057
▁appear	-7058
▁notre	-7059
▁border	-7060
ppen	-7061
öm	-7062
در	-7063
▁gradu	-7064
▁students	-7065
jam	-7066
▁fon	-7067
▁tämä	-7068
ريق	-7069
يلي	-7070
▁dü	-7071
▁affected	-7072
▁steps	-7073
คร	-7074
▁ки	-7075
ческой	-7076
בי	-7077
▁animal	-7078
▁solutions	-7079
▁figure	-7080
ване	-7081
ần	-7082
▁avoid	-7083
лось	-7084
bat	-7085
▁能	-7086
▁earlier	-7087
▁immediately	-7088
▁noted	-7089
▁construct	-7090
▁daß	-7091
▁conclusion	-7092
kor	-7093
endant	-7094
▁cela	-7095
ôle	-7096
▁touch	-7097
нг	-7098
▁river	-7099
▁apl	-7100
▁election	-7101
كوم	-7102
▁paz	-7103
ittä	-7104
▁calling	-7105
▁contre	-7106
▁комитет	-7107
▁lev	-7108
eno	-7109
under	-7110
▁whom	-7111
▁因	-7112
▁alc	-7113
▁structural	-7114
▁rail	-7115
▁approved	-7116
▁obtain	-7117
▁когда	-7118
▁volt	-7119
ческого	-7120
▁2020	-7121
▁المع	-7122
▁小	-7123
pai	-7124
ότε	-7125
▁plant	-7126
▁responsabil	-7127
ці	-7128
▁leurs	-7129
▁asking	-7130
itte	-7131
▁социаль	-7132
πε	-7133
▁growing	-7134
▁каса	-7135
▁directly	-7136
▁remind	-7137
רא	-7138
▁medium	-7139
ints	-7140
gl	-7141
▁ted	-7142
▁construction	-7143
year	-7144
▁ну	-7145
▁lose	-7146
▁income	-7147
▁source	-7148
▁birth	-7149
▁david	-7150
▁保	-7151
▁blue	-7152
▁وه	-7153
tav	-7154
▁wrote	-7155
▁playing	-7156
▁constant	-7157
▁kako	-7158
▁стран	-7159
ijo	-7160
лся	-7161
stater	-7162
▁お	-7163
▁κυ	-7164
▁shown	-7165
▁criteria	-7166
▁reject	-7167
чу	-7168
▁tiem	-7169
▁awak	-7170
▁ahor	-7171
esty	-7172
rete	-7173
▁präsident	-7174
▁하	-7175
▁μα	-7176
nées	-7177
▁innovation	-7178
▁understanding	-7179
▁tin	-7180
▁analysis	-7181
اج	-7182
▁它	-7183
وض	-7184
▁tack	-7185
ez	-7186
▁volunt	-7187
▁compar	-7188
▁oike	-7189
▁mandate	-7190
жения	-7191
▁daughter	-7192
▁leaving	-7193
program	-7194
▁played	-7195
▁重	-7196
▁contained	-7197
izing	-7198
▁建	-7199
▁financing	-7200
ível	-7201
▁ukraine	-7202
▁государства	-7203
▁一个	-7204
▁美	-7205
▁zm	-7206
▁《	-7207
▁destroy	-7208
▁efect	-7209
ea	-7210
eti	-7211
elser	-7212
▁experts	-7213
▁dangerous	-7214
▁budgetary	-7215
ês	-7216
ποι	-7217
▁happens	-7218
ighed	-7219
▁част	-7220
ovi	-7221
glich	-7222
▁europæ	-7223
▁ram	-7224
▁unies	-7225
▁conform	-7226
▁compos	-7227
▁running	-7228
▁还	-7229
▁menos	-7230
▁bude	-7231
▁43	-7232
▁hour	-7233
▁seguridad	-7234
geb	-7235
▁surve	-7236
▁غير	-7237
▁看	-7238
▁ó	-7239
▁быть	-7240
▁micro	-7241
▁dov	-7242
kaan	-7243
إن	-7244
cen	-7245
ao	-7246
نية	-7247
▁резолюции	-7248
▁overall	-7249
kti	-7250
hern	-7251
▁alex	-7252
การ	-7253
▁tule	-7254
▁expected	-7255
▁duty	-7256
▁họ	-7257
▁aos	-7258
▁recover	-7259
▁families	-7260
▁están	-7261
▁embargo	-7262
▁braz	-7263
▁pela	-7264
▁тоа	-7265
ellig	-7266
лови	-7267
isters	-7268
▁আম	-7269
erson	-7270
▁voice	-7271
▁brain	-7272
▁simpl	-7273
▁comer	-7274
▁sociale	-7275
▁speaking	-7276
▁terri	-7277
isse	-7278
▁190	-7279
ły	-7280
▁likely	-7281
rebbe	-7282
▁consol	-7283
▁millions	-7284
▁അ	-7285
imme	-7286
▁fill	-7287
▁regards	-7288
▁pleased	-7289
▁ث	-7290
▁gobierno	-7291
▁caused	-7292
▁activity	-7293
▁ня	-7294
nih	-7295
▁portugal	-7296
ето	-7297
▁homme	-7298
▁kult	-7299
▁goods	-7300
▁legit	-7301
▁unemploy	-7302
ening	-7303
▁roll	-7304
.7	-7305
▁prevention	-7306
▁empres	-7307
▁sister	-7308
יי	-7309
▁maxim	-7310
كر	-7311
▁picture	-7312
▁brief	-7313
▁decide	-7314
▁pode	-7315
▁interess	-7316
ждения	-7317
▁соответству	-7318
▁》	-7319
слу	-7320
وية	-7321
▁stem	-7322
▁وفي	-7323
▁cosa	-7324
▁genom	-7325
▁dont	-7326
burg	-7327
▁conduct	-7328
▁introduced	-7329
icios	-7330
▁serve	-7331
kning	-7332
κα	-7333
▁camb	-7334
▁同	-7335
▁moving	-7336
▁fos	-7337
▁io	-7338
▁adalah	-7339
▁gegen	-7340
▁italian	-7341
▁vagy	-7342
组织	-7343
ång	-7344
▁trabajo	-7345
▁challenge	-7346
▁huge	-7347
▁gouvernement	-7348
▁ж	-7349
▁measure	-7350
▁entitled	-7351
▁strengthening	-7352
▁европе	-7353
▁вз	-7354
▁vend	-7355
▁επιτροπ	-7356
▁دي	-7357
▁flow	-7358
▁הוא	-7359
▁мно	-7360
▁eastern	-7361
▁emb	-7362
▁tema	-7363
▁provin	-7364
cas	-7365
nt	-7366
▁เธ	-7367
▁religious	-7368
▁secondly	-7369
▁otros	-7370
▁сторо	-7371
isti	-7372
▁command	-7373
▁intens	-7374
▁hous	-7375
▁produced	-7376
▁web	-7377
▁evropsk	-7378
idge	-7379
▁reference	-7380
▁après	-7381
▁palestinian	-7382
▁card	-7383
▁performance	-7384
▁compromise	-7385
▁incident	-7386
▁circumstances	-7387
ρεί	-7388
▁counter	-7389
▁interested	-7390
▁debat	-7391
▁szer	-7392
▁liter	-7393
▁sang	-7394
▁gì	-7395
.0	-7396
ена	-7397
дина	-7398
íd	-7399
▁entrepr	-7400
▁compla	-7401
▁39	-7402
valt	-7403
▁encourage	-7404
ester	-7405
pens	-7406
icip	-7407
▁explo	-7408
rant	-7409
▁cn	-7410
▁отношении	-7411
▁experiment	-7412
▁فقط	-7413
▁জ	-7414
▁drž	-7415
▁sous	-7416
▁spent	-7417
ystem	-7418
▁consegu	-7419
▁jen	-7420
▁conclud	-7421
▁signor	-7422
▁pier	-7423
▁ese	-7424
▁consci	-7425
leich	-7426
▁constru	-7427
▁efficient	-7428
▁renew	-7429
▁implemented	-7430
▁creating	-7431
pas	-7432
▁いる	-7433
▁planet	-7434
icación	-7435
▁sve	-7436
gon	-7437
▁canada	-7438
▁trebu	-7439
itat	-7440
▁gives	-7441
▁nú	-7442
▁व	-7443
iks	-7444
▁时	-7445
rim	-7446
▁şey	-7447
▁drive	-7448
ору	-7449
▁στα	-7450
คุณ	-7451
▁fare	-7452
▁expend	-7453
yect	-7454
▁speed	-7455
▁onze	-7456
▁+	-7457
oria	-7458
▁dram	-7459
▁onu	-7460
▁argent	-7461
▁想	-7462
▁zak	-7463
▁arvoisa	-7464
▁habe	-7465
▁compens	-7466
▁views	-7467
جلس	-7468
war	-7469
inti	-7470
▁cry	-7471
rada	-7472
▁pron	-7473
andon	-7474
▁voting	-7475
▁união	-7476
▁nyt	-7477
▁です	-7478
خص	-7479
▁fishing	-7480
▁moreover	-7481
rios	-7482
▁ผม	-7483
▁dark	-7484
.9	-7485
▁سي	-7486
unci	-7487
▁chief	-7488
▁independence	-7489
сла	-7490
-3	-7491
isms	-7492
▁sant	-7493
▁introduction	-7494
erse	-7495
▁versch	-7496
▁믡	-7497
▁الآ	-7498
omet	-7499
นั	-7500
▁jac	-7501
ēs	-7502
▁assum	-7503
▁ד	-7504
▁конферен	-7505
dam	-7506
aur	-7507
▁alter	-7508
▁تر	-7509
▁провед	-7510
▁animals	-7511
▁northern	-7512
▁kosovo	-7513
▁perché	-7514
▁zone	-7515
▁bott	-7516
▁koske	-7517
เล	-7518
▁musí	-7519
▁hö	-7520
▁referred	-7521
▁kle	-7522
▁тер	-7523
▁farmers	-7524
▁período	-7525
▁executive	-7526
▁から	-7527
eping	-7528
▁joka	-7529
▁gh	-7530
▁thousands	-7531
rov	-7532
▁impossible	-7533
▁opposition	-7534
▁comments	-7535
دان	-7536
mat	-7537
▁enable	-7538
▁influence	-7539
כל	-7540
view	-7541
des	-7542
มา	-7543
▁aimed	-7544
jde	-7545
▁write	-7546
▁guidel	-7547
▁已	-7548
ery	-7549
▁benefits	-7550
▁rise	-7551
▁studies	-7552
▁meu	-7553
▁gender	-7554
▁mutta	-7555
แล	-7556
λι	-7557
▁looked	-7558
όν	-7559
▁suffer	-7560
▁elements	-7561
▁fourth	-7562
uit	-7563
▁όπ	-7564
▁applied	-7565
▁kop	-7566
bye	-7567
▁发展	-7568
▁peoples	-7569
jal	-7570
▁meant	-7571
▁voorzitter	-7572
llä	-7573
▁tutti	-7574
▁washing	-7575
▁kā	-7576
▁mia	-7577
▁spain	-7578
▁produce	-7579
▁rif	-7580
▁pakistan	-7581
▁nim	-7582
▁bulgar	-7583
▁kit	-7584
▁năm	-7585
▁деятельности	-7586
▁сме	-7587
▁viet	-7588
▁followed	-7589
▁lower	-7590
▁دول	-7591
▁резу	-7592
eler	-7593
ствии	-7594
▁receive	-7595
станов	-7596
zung	-7597
▁explain	-7598
▁wied	-7599
▁suo	-7600
▁afri	-7601
▁zem	-7602
▁zar	-7603
tschaft	-7604
▁places	-7605
▁europeiska	-7606
▁contribute	-7607
▁nome	-7608
aca	-7609
▁وقت	-7610
▁sexual	-7611
▁manuf	-7612
▁обще	-7613
▁possibility	-7614
ibly	-7615
▁highlight	-7616
шо	-7617
щих	-7618
ék	-7619
▁behav	-7620
ories	-7621
stre	-7622
▁cli	-7623
▁vz	-7624
تما	-7625
▁pog	-7626
▁1989	-7627
▁зая	-7628
▁adapt	-7629
pun	-7630
oved	-7631
▁geb	-7632
▁说	-7633
▁viv	-7634
▁moun	-7635
▁album	-7636
aram	-7637
▁mejor	-7638
▁является	-7639
▁selv	-7640
ская	-7641
ught	-7642
azioni	-7643
▁statements	-7644
את	-7645
oks	-7646
érie	-7647
▁tie	-7648
▁eta	-7649
вши	-7650
▁turned	-7651
▁turk	-7652
fi	-7653
▁molto	-7654
sty	-7655
▁deber	-7656
▁celebr	-7657
ope	-7658
▁ocks	-7659
▁新	-7660
▁kamu	-7661
owie	-7662
▁inici	-7663
কে	-7664
▁بم	-7665
מי	-7666
ระ	-7667
▁اللجنة	-7668
мени	-7669
unta	-7670
▁domestic	-7671
▁ahora	-7672
▁revolution	-7673
ír	-7674
vez	-7675
▁aliment	-7676
▁proyect	-7677
mek	-7678
▁θε	-7679
▁också	-7680
▁אתה	-7681
▁intellig	-7682
▁ciudad	-7683
tö	-7684
▁manufact	-7685
▁infrastructure	-7686
▁hasta	-7687
▁три	-7688
▁рам	-7689
rog	-7690
▁fog	-7691
зва	-7692
▁azt	-7693
▁unit	-7694
▁center	-7695
▁تت	-7696
anden	-7697
bie	-7698
cast	-7699
▁41	-7700
▁могу	-7701
▁designed	-7702
▁опреде	-7703
▁phải	-7704
▁condition	-7705
▁1980	-7706
▁despu	-7707
▁size	-7708
▁tale	-7709
▁latin	-7710
izz	-7711
بة	-7712
inden	-7713
▁communities	-7714
▁לי	-7715
▁expendit	-7716
oda	-7717
▁меня	-7718
▁particul	-7719
▁después	-7720
assen	-7721
цией	-7722
وني	-7723
▁christian	-7724
فر	-7725
terior	-7726
▁battle	-7727
▁veel	-7728
oval	-7729
▁сотрудниче	-7730
▁kolle	-7731
▁چي	-7732
стро	-7733
▁länder	-7734
ls	-7735
▁πολύ	-7736
▁furthermore	-7737
الة	-7738
▁hyvä	-7739
▁block	-7740
▁وي	-7741
▁ĉ	-7742
▁général	-7743
▁sectors	-7744
ві	-7745
yen	-7746
zin	-7747
▁leading	-7748
▁core	-7749
▁така	-7750
▁efficiency	-7751
▁54	-7752
▁acad	-7753
▁μετα	-7754
▁convers	-7755
mm	-7756
▁mou	-7757
▁rod	-7758
▁oce	-7759
▁ville	-7760
▁property	-7761
▁mend	-7762
▁nak	-7763
מו	-7764
чки	-7765
▁før	-7766
▁kuin	-7767
▁何	-7768
▁rent	-7769
▁jou	-7770
▁pob	-7771
jar	-7772
▁defence	-7773
▁jon	-7774
▁credit	-7775
▁수	-7776
λέ	-7777
ено	-7778
▁respe	-7779
▁factor	-7780
ened	-7781
dern	-7782
▁imagine	-7783
▁extent	-7784
лі	-7785
ório	-7786
ño	-7787
телей	-7788
▁bull	-7789
▁jord	-7790
▁hä	-7791
▁المح	-7792
lä	-7793
▁mont	-7794
▁confidence	-7795
▁الأول	-7796
▁ז	-7797
▁box	-7798
▁必	-7799
curité	-7800
iset	-7801
edi	-7802
▁highly	-7803
aking	-7804
ropas	-7805
▁anyway	-7806
vá	-7807
▁bun	-7808
▁käyt	-7809
oso	-7810
▁emissions	-7811
▁master	-7812
berg	-7813
▁нас	-7814
▁како	-7815
▁appar	-7816
▁corpor	-7817
▁feeling	-7818
but	-7819
▁العامة	-7820
▁kesk	-7821
bility	-7822
iable	-7823
ilu	-7824
▁sick	-7825
▁khi	-7826
انية	-7827
▁או	-7828
▁άλ	-7829
▁technologies	-7830
▁inh	-7831
ดี	-7832
كت	-7833
▁ek	-7834
▁seus	-7835
▁する	-7836
▁هو	-7837
▁weak	-7838
itti	-7839
ted	-7840
عات	-7841
▁dyn	-7842
▁voices	-7843
держа	-7844
лаго	-7845
▁arrangements	-7846
▁boston	-7847
▁oss	-7848
▁деле	-7849
tid	-7850
блю	-7851
▁علي	-7852
▁dav	-7853
▁firstly	-7854
ăr	-7855
▁обя	-7856
▁продол	-7857
▁guidelines	-7858
▁anybody	-7859
▁discussions	-7860
▁package	-7861
jat	-7862
бя	-7863
▁κύρι	-7864
▁ress	-7865
▁desen	-7866
▁долл	-7867
▁miel	-7868
▁forced	-7869
نس	-7870
▁alive	-7871
▁kë	-7872
▁unless	-7873
▁خوب	-7874
mine	-7875
▁机	-7876
▁эк	-7877
▁צ	-7878
▁travail	-7879
▁tän	-7880
▁promoting	-7881
amer	-7882
jn	-7883
▁cert	-7884
▁speech	-7885
ник	-7886
▁euroopa	-7887
▁interven	-7888
▁....	-7889
ثر	-7890
ικο	-7891
▁vou	-7892
▁σύ	-7893
▁आ	-7894
uly	-7895
▁dete	-7896
▁fan	-7897
▁hotels	-7898
▁конвен	-7899
öt	-7900
▁acts	-7901
raz	-7902
อะ	-7903
▁yours	-7904
teen	-7905
الية	-7906
▁controll	-7907
▁sistem	-7908
ύτε	-7909
▁avons	-7910
pon	-7911
▁range	-7912
urance	-7913
stell	-7914
▁去	-7915
▁km	-7916
قتصاد	-7917
▁colleagues	-7918
▁monetary	-7919
▁brazil	-7920
▁ensuring	-7921
▁使	-7922
▁vara	-7923
▁dot	-7924
▁75	-7925
▁ט	-7926
▁unif	-7927
дь	-7928
▁mycket	-7929
▁alloc	-7930
ität	-7931
▁zich	-7932
▁keh	-7933
▁المش	-7934
των	-7935
▁universal	-7936
ında	-7937
▁muse	-7938
▁correspond	-7939
сур	-7940
rane	-7941
▁subse	-7942
▁комитета	-7943
زي	-7944
▁заседа	-7945
▁australia	-7946
▁المؤ	-7947
▁всех	-7948
▁betre	-7949
ograf	-7950
лет	-7951
vole	-7952
▁incorpor	-7953
▁sécurité	-7954
▁bomb	-7955
reich	-7956
▁obligations	-7957
žen	-7958
any	-7959
ionale	-7960
▁rá	-7961
вого	-7962
▁reforms	-7963
▁books	-7964
▁fü	-7965
łem	-7966
vé	-7967
▁greece	-7968
uerdo	-7969
▁personas	-7970
รู	-7971
▁priorities	-7972
▁가	-7973
وار	-7974
▁corru	-7975
▁guarante	-7976
▁emergency	-7977
▁doit	-7978
ød	-7979
▁champ	-7980
▁pesso	-7981
▁mujer	-7982
jour	-7983
▁estable	-7984
▁named	-7985
▁naš	-7986
ammen	-7987
▁ner	-7988
▁debe	-7989
▁অ	-7990
▁présent	-7991
▁spirit	-7992
▁sky	-7993
▁verw	-7994
▁asi	-7995
▁vere	-7996
▁noi	-7997
בל	-7998
eración	-7999
▁oldu	-8000
▁сессии	-8001
ivat	-8002
heer	-8003
тели	-8004
elho	-8005
▁‘	-8006
▁kept	-8007
▁violations	-8008
▁rech	-8009
▁fant	-8010
▁penal	-8011
йски	-8012
▁fas	-8013
▁sj	-8014
▁fisheries	-8015
▁svar	-8016
▁produc	-8017
▁descri	-8018
▁eye	-8019
▁armed	-8020
мери	-8021
▁sei	-8022
▁conserv	-8023
ника	-8024
ίο	-8025
▁情	-8026
▁useful	-8027
ől	-8028
▁hid	-8029
▁intent	-8030
usal	-8031
▁преду	-8032
▁рес	-8033
▁έχει	-8034
▁aller	-8035
λευ	-8036
▁процес	-8037
osi	-8038
ping	-8039
uras	-8040
▁practical	-8041
▁cohesion	-8042
τώ	-8043
▁minimum	-8044
▁selle	-8045
▁যা	-8046
amise	-8047
▁init	-8048
untos	-8049
▁abandon	-8050
▁moved	-8051
▁urgent	-8052
▁effectively	-8053
▁mitgli	-8054
▁cet	-8055
ört	-8056
пера	-8057
▁orang	-8058
▁seek	-8059
▁fucking	-8060
▁ได	-8061
▁toute	-8062
▁cze	-8063
เร	-8064
▁medlemsstater	-8065
▁site	-8066
ña	-8067
کر	-8068
▁decl	-8069
iciones	-8070
▁svo	-8071
▁parlamentet	-8072
▁基	-8073
▁reun	-8074
▁mä	-8075
▁الاست	-8076
engen	-8077
craft	-8078
▁electric	-8079
▁该	-8080
▁れ	-8081
лич	-8082
mad	-8083
▁δε	-8084
▁charge	-8085
▁bear	-8086
kter	-8087
igkeit	-8088
▁vre	-8089
▁leader	-8090
lare	-8091
▁・	-8092
▁fab	-8093
▁σας	-8094
твер	-8095
▁lay	-8096
lia	-8097
ạn	-8098
▁verk	-8099
▁社	-8100
▁tied	-8101
ef	-8102
.8	-8103
▁σημα	-8104
▁ين	-8105
▁equality	-8106
works	-8107
▁одна	-8108
кры	-8109
aga	-8110
▁kons	-8111
▁agg	-8112
▁zi	-8113
▁fighting	-8114
σουμε	-8115
ró	-8116
êm	-8117
▁alternative	-8118
▁zah	-8119
▁dent	-8120
▁maria	-8121
▁يا	-8122
▁республи	-8123
▁onore	-8124
▁dress	-8125
▁prohib	-8126
esh	-8127
▁ela	-8128
▁enlargement	-8129
▁mundial	-8130
▁lux	-8131
▁signal	-8132
▁fool	-8133
▁catch	-8134
udo	-8135
δη	-8136
fall	-8137
▁dif	-8138
▁tant	-8139
▁本	-8140
▁zor	-8141
▁urban	-8142
خل	-8143
▁دو	-8144
ril	-8145
▁nod	-8146
▁igen	-8147
▁hil	-8148
▁работа	-8149
▁сре	-8150
ρες	-8151
aci	-8152
▁目	-8153
▁consig	-8154
▁crimes	-8155
вод	-8156
wide	-8157
▁propu	-8158
▁telling	-8159
▁korea	-8160
▁дан	-8161
▁vores	-8162
▁negative	-8163
nan	-8164
▁включа	-8165
▁meget	-8166
▁difference	-8167
▁prose	-8168
▁우	-8169
▁tiempo	-8170
aff	-8171
▁poč	-8172
ăt	-8173
мина	-8174
▁diesem	-8175
▁ông	-8176
▁hurry	-8177
▁مح	-8178
▁للم	-8179
▁youth	-8180
▁goal	-8181
▁ministers	-8182
▁motor	-8183
arden	-8184
iling	-8185
▁köz	-8186
υνα	-8187
▁espa	-8188
▁条	-8189
▁ресур	-8190
▁hans	-8191
▁στις	-8192
▁usually	-8193
▁cook	-8194
▁congratulate	-8195
▁enfor	-8196
бира	-8197
▁none	-8198
▁है	-8199
جه	-8200
▁souther	-8201
▁rol	-8202
ocrat	-8203
▁meaning	-8204
▁реко	-8205
▁eer	-8206
▁spé	-8207
▁happening	-8208
▁witness	-8209
▁این	-8210
ību	-8211
▁cré	-8212
ός	-8213
▁damage	-8214
▁nive	-8215
▁implic	-8216
▁floor	-8217
▁below	-8218
▁autre	-8219
▁stim	-8220
richt	-8221
▁гражда	-8222
στη	-8223
▁aš	-8224
▁ça	-8225
▁path	-8226
▁pert	-8227
play	-8228
▁webs	-8229
ώρα	-8230
води	-8231
▁cả	-8232
▁denna	-8233
uelle	-8234
▁conclusions	-8235
vik	-8236
▁suis	-8237
▁thir	-8238
▁πο	-8239
▁вопросам	-8240
sek	-8241
▁stad	-8242
▁virt	-8243
▁werk	-8244
ktur	-8245
ittel	-8246
▁communaut	-8247
кан	-8248
kten	-8249
чить	-8250
ael	-8251
▁wed	-8252
▁учре	-8253
▁yra	-8254
▁kim	-8255
▁accepted	-8256
ague	-8257
tek	-8258
▁ji	-8259
▁совета	-8260
▁abst	-8261
▁distr	-8262
יה	-8263
jos	-8264
▁muss	-8265
▁confir	-8266
rants	-8267
▁hvis	-8268
aría	-8269
▁surr	-8270
▁развити	-8271
▁государств	-8272
ninger	-8273
▁soit	-8274
رض	-8275
▁siitä	-8276
▁conflic	-8277
▁hate	-8278
kej	-8279
يرة	-8280
▁jā	-8281
▁strategic	-8282
▁我們	-8283
▁stup	-8284
▁cours	-8285
▁õ	-8286
▁ήταν	-8287
▁để	-8288
▁генерального	-8289
طي	-8290
▁mountain	-8291
iation	-8292
▁ble	-8293
ồi	-8294
▁consensus	-8295
▁mechanism	-8296
▁professor	-8297
▁ла	-8298
▁ะ	-8299
umb	-8300
▁ول	-8301
▁zeit	-8302
▁trava	-8303
▁协	-8304
рения	-8305
▁wood	-8306
▁neverth	-8307
keeping	-8308
yk	-8309
▁appeal	-8310
▁futuro	-8311
▁nevertheless	-8312
olt	-8313
▁torn	-8314
▁hoe	-8315
▁toda	-8316
▁deres	-8317
aine	-8318
óg	-8319
rap	-8320
ئيس	-8321
▁dez	-8322
▁کنم	-8323
▁sicher	-8324
▁namely	-8325
akes	-8326
▁möchte	-8327
ärke	-8328
▁чу	-8329
δια	-8330
▁dess	-8331
▁intended	-8332
▁zab	-8333
▁southern	-8334
ющей	-8335
▁vert	-8336
rot	-8337
▁fazer	-8338
▁аф	-8339
τω	-8340
ärj	-8341
▁дости	-8342
▁elabor	-8343
▁exercise	-8344
ligen	-8345
▁результа	-8346
etta	-8347
▁willing	-8348
icking	-8349
vät	-8350
▁raise	-8351
sc	-8352
▁reven	-8353
cker	-8354
▁piece	-8355
▁opening	-8356
ром	-8357
▁trav	-8358
▁ano	-8359
▁wonderful	-8360
▁facebook	-8361
▁seriously	-8362
▁ام	-8363
▁afghanistan	-8364
▁ど	-8365
▁โ	-8366
▁immigration	-8367
jm	-8368
▁nécess	-8369
▁eso	-8370
ван	-8371
▁washington	-8372
▁يمكن	-8373
fon	-8374
▁joe	-8375
▁ihnen	-8376
▁것	-8377
▁加	-8378
▁വ	-8379
▁μό	-8380
▁dieses	-8381
▁improving	-8382
▁уси	-8383
apat	-8384
سه	-8385
inst	-8386
▁代	-8387
▁conj	-8388
▁added	-8389
▁starting	-8390
▁kri	-8391
▁1,	-8392
rais	-8393
▁roman	-8394
▁ability	-8395
▁practices	-8396
▁subsidi	-8397
▁contribu	-8398
▁sid	-8399
▁failed	-8400
اف	-8401
ugi	-8402
▁neither	-8403
▁oso	-8404
▁dost	-8405
▁représ	-8406
▁vain	-8407
▁average	-8408
▁אח	-8409
▁institutional	-8410
τες	-8411
essä	-8412
▁hecho	-8413
▁coll	-8414
▁spread	-8415
▁requires	-8416
▁fulf	-8417
▁obviously	-8418
ством	-8419
izar	-8420
cc	-8421
▁дела	-8422
▁开	-8423
лиза	-8424
▁developments	-8425
▁númer	-8426
чита	-8427
rift	-8428
kaj	-8429
▁cuba	-8430
▁bosnia	-8431
μπ	-8432
gos	-8433
าน	-8434
▁honor	-8435
▁ที	-8436
▁economies	-8437
ocks	-8438
omas	-8439
▁manner	-8440
▁män	-8441
amat	-8442
ience	-8443
▁нет	-8444
▁borders	-8445
فاق	-8446
ورة	-8447
▁croat	-8448
mun	-8449
▁idi	-8450
сма	-8451
▁gang	-8452
oupe	-8453
▁miles	-8454
▁этом	-8455
▁considerable	-8456
▁spl	-8457
what	-8458
▁образо	-8459
▁insist	-8460
▁fakt	-8461
▁секретаря	-8462
▁ميد	-8463
vend	-8464
▁incom	-8465
▁taip	-8466
gie	-8467
лении	-8468
▁artik	-8469
▁соответствии	-8470
енно	-8471
▁critical	-8472
▁сист	-8473
▁initial	-8474
▁goed	-8475
▁ine	-8476
▁described	-8477
▁anos	-8478
▁manifest	-8479
▁optim	-8480
▁sitä	-8481
▁asyl	-8482
eles	-8483
▁καθ	-8484
▁methods	-8485
лко	-8486
мент	-8487
▁得	-8488
▁airport	-8489
▁trabaj	-8490
och	-8491
▁eb	-8492
▁techni	-8493
▁worse	-8494
▁tipo	-8495
▁resist	-8496
рия	-8497
▁сдела	-8498
kal	-8499
▁hav	-8500
ват	-8501
άρ	-8502
▁announced	-8503
▁eks	-8504
▁unidos	-8505
▁acuerdo	-8506
odi	-8507
▁summer	-8508
▁records	-8509
▁ani	-8510
▁ingl	-8511
▁informed	-8512
▁largest	-8513
▁traditional	-8514
▁menschen	-8515
рез	-8516
ск	-8517
кту	-8518
κο	-8519
lavia	-8520
▁ras	-8521
▁rag	-8522
▁adjust	-8523
▁bob	-8524
▁consolid	-8525
itution	-8526
▁gla	-8527
▁mexico	-8528
▁先	-8529
ettre	-8530
▁accession	-8531
åll	-8532
▁sulla	-8533
▁dla	-8534
▁pull	-8535
ът	-8536
▁ll	-8537
▁vom	-8538
▁合	-8539
quently	-8540
▁promise	-8541
▁العال	-8542
▁discussed	-8543
▁tecn	-8544
▁japanese	-8545
▁ад	-8546
▁requests	-8547
χα	-8548
نو	-8549
▁před	-8550
has	-8551
▁や	-8552
▁coast	-8553
▁nell	-8554
taire	-8555
▁otherwise	-8556
▁като	-8557
▁drugs	-8558
جب	-8559
kas	-8560
▁jej	-8561
ivity	-8562
δι	-8563
▁assembl	-8564
▁потре	-8565
▁nada	-8566
▁البل	-8567
▁mitä	-8568
▁δικ	-8569
▁đây	-8570
лению	-8571
เธ	-8572
▁radi	-8573
▁zusammen	-8574
▁kul	-8575
▁рекомен	-8576
hy	-8577
▁igual	-8578
ibles	-8579
дей	-8580
▁amaz	-8581
uch	-8582
▁dun	-8583
▁krit	-8584
▁tahu	-8585
▁τε	-8586
▁honey	-8587
зыва	-8588
rok	-8589
▁én	-8590
▁anymore	-8591
▁työ	-8592
▁sos	-8593
▁sempre	-8594
▁becoming	-8595
lijk	-8596
▁increasingly	-8597
▁sic	-8598
יר	-8599
مان	-8600
▁שה	-8601
▁только	-8602
фектив	-8603
▁实	-8604
▁ию	-8605
▁encore	-8606
ъл	-8607
▁parliamentary	-8608
▁bio	-8609
şt	-8610
▁вер	-8611
▁proposta	-8612
▁見	-8613
▁czy	-8614
рите	-8615
vit	-8616
halten	-8617
▁mein	-8618
▁avoir	-8619
ونم	-8620
▁moral	-8621
▁rez	-8622
▁послед	-8623
▁quiet	-8624
▁خود	-8625
▁species	-8626
rut	-8627
▁seda	-8628
μαι	-8629
▁año	-8630
▁societ	-8631
ursos	-8632
▁disease	-8633
ancia	-8634
▁droit	-8635
▁обяза	-8636
▁distribution	-8637
▁知道	-8638
▁έκ	-8639
isc	-8640
▁была	-8641
влен	-8642
▁individuals	-8643
كم	-8644
▁pact	-8645
▁še	-8646
anos	-8647
rado	-8648
ിക	-8649
▁difficulties	-8650
▁dated	-8651
▁тру	-8652
▁amp	-8653
▁officials	-8654
וק	-8655
▁release	-8656
što	-8657
▁lei	-8658
▁desenvol	-8659
ava	-8660
▁james	-8661
ėt	-8662
▁neuv	-8663
udes	-8664
▁kami	-8665
▁motion	-8666
ίου	-8667
▁кои	-8668
▁institute	-8669
▁disarm	-8670
nement	-8671
icated	-8672
ells	-8673
щения	-8674
▁bast	-8675
▁implementing	-8676
▁тря	-8677
▁исто	-8678
▁komission	-8679
ações	-8680
خرى	-8681
вые	-8682
▁ज	-8683
▁cod	-8684
▁фор	-8685
μι	-8686
▁articles	-8687
▁damn	-8688
▁genu	-8689
▁vasta	-8690
▁dessa	-8691
▁wet	-8692
▁includes	-8693
бва	-8694
▁ασ	-8695
ijos	-8696
▁convent	-8697
▁advisory	-8698
▁تق	-8699
▁vulner	-8700
ást	-8701
▁关于	-8702
ющихся	-8703
ونه	-8704
▁alleg	-8705
ffee	-8706
▁org	-8707
▁управ	-8708
▁definit	-8709
▁podr	-8710
icio	-8711
▁dor	-8712
▁pleas	-8713
▁expos	-8714
▁vit	-8715
ných	-8716
ronic	-8717
سية	-8718
▁吧	-8719
▁konkur	-8720
тер	-8721
▁rig	-8722
▁recht	-8723
aku	-8724
▁expand	-8725
▁генеральной	-8726
▁部	-8727
vän	-8728
▁dv	-8729
▁laugh	-8730
▁hai	-8731
ิน	-8732
▁cities	-8733
ground	-8734
▁compon	-8735
▁vào	-8736
▁世	-8737
ēj	-8738
▁他们	-8739
ización	-8740
▁banks	-8741
lung	-8742
onom	-8743
appe	-8744
wie	-8745
▁careful	-8746
▁या	-8747
▁digital	-8748
▁forb	-8749
▁ties	-8750
cont	-8751
estä	-8752
▁goals	-8753
zem	-8754
▁seeing	-8755
▁vikt	-8756
нь	-8757
▁چيز	-8758
▁image	-8759
oga	-8760
issen	-8761
▁консу	-8762
▁sha	-8763
▁públic	-8764
▁entwick	-8765
▁puhem	-8766
▁dėl	-8767
▁problemas	-8768
▁aquí	-8769
etti	-8770
מר	-8771
▁temps	-8772
▁punto	-8773
▁št	-8774
▁mechanisms	-8775
▁подготов	-8776
лях	-8777
▁yugoslavia	-8778
▁condem	-8779
▁groupe	-8780
▁estos	-8781
▁任	-8782
▁fatto	-8783
доб	-8784
zza	-8785
icians	-8786
▁adm	-8787
غي	-8788
▁feed	-8789
▁prove	-8790
▁får	-8791
▁closely	-8792
▁elected	-8793
▁slov	-8794
▁дня	-8795
▁jel	-8796
▁bilateral	-8797
▁做	-8798
▁impr	-8799
▁ট	-8800
▁ged	-8801
▁peter	-8802
politik	-8803
ành	-8804
▁55	-8805
▁正	-8806
▁television	-8807
▁store	-8808
▁preg	-8809
▁communications	-8810
▁ц	-8811
▁abbiamo	-8812
▁map	-8813
ερ	-8814
▁hair	-8815
▁ако	-8816
หล	-8817
žit	-8818
andet	-8819
iance	-8820
ầu	-8821
▁indian	-8822
gue	-8823
orsch	-8824
вра	-8825
ieron	-8826
üm	-8827
čen	-8828
▁avan	-8829
iar	-8830
дна	-8831
lige	-8832
▁је	-8833
▁områ	-8834
▁interes	-8835
▁支	-8836
▁κάν	-8837
сматри	-8838
anim	-8839
▁forts	-8840
▁न	-8841
▁succeed	-8842
▁tegen	-8843
بين	-8844
▁κοινο	-8845
▁lines	-8846
▁призна	-8847
▁трябва	-8848
▁medio	-8849
▁scope	-8850
zar	-8851
lat	-8852
▁ब	-8853
▁который	-8854
▁soviet	-8855
▁защи	-8856
emp	-8857
▁ought	-8858
▁americ	-8859
wing	-8860
▁forty	-8861
жу	-8862
ống	-8863
▁blo	-8864
▁بايد	-8865
▁forgot	-8866
▁خيلي	-8867
▁generally	-8868
▁defend	-8869
▁dealing	-8870
▁keine	-8871
μού	-8872
▁europæiske	-8873
ật	-8874
▁внима	-8875
▁eiropas	-8876
▁occasion	-8877
▁提供	-8878
▁بگ	-8879
▁demonst	-8880
ních	-8881
▁estamos	-8882
▁push	-8883
ields	-8884
▁kong	-8885
▁languages	-8886
▁lut	-8887
▁rome	-8888
▁jotka	-8889
▁sólo	-8890
▁michael	-8891
imer	-8892
▁distin	-8893
▁ذ	-8894
▁pří	-8895
▁village	-8896
▁٥	-8897
▁需	-8898
▁bericht	-8899
usion	-8900
▁soldi	-8901
gio	-8902
▁ola	-8903
▁unemployment	-8904
cos	-8905
▁monde	-8906
ικής	-8907
▁suppose	-8908
▁这些	-8909
рования	-8910
▁المست	-8911
▁reflect	-8912
▁каче	-8913
▁verg	-8914
▁swit	-8915
▁어	-8916
นะ	-8917
▁symbol	-8918
▁mercado	-8919
▁failure	-8920
jt	-8921
nam	-8922
▁flag	-8923
▁μη	-8924
▁straight	-8925
tää	-8926
▁integrated	-8927
▁퓚	-8928
▁отме	-8929
▁更	-8930
▁пар	-8931
▁formal	-8932
▁avait	-8933
▁нача	-8934
▁pār	-8935
▁algo	-8936
▁estar	-8937
▁disarmament	-8938
▁政府	-8939
▁должны	-8940
তে	-8941
▁jas	-8942
▁dalla	-8943
▁nije	-8944
▁multilateral	-8945
▁mediter	-8946
ào	-8947
▁благо	-8948
▁ethnic	-8949
▁europos	-8950
▁restaur	-8951
uksen	-8952
▁资	-8953
sche	-8954
▁sovere	-8955
▁sovereign	-8956
▁officer	-8957
πη	-8958
▁ست	-8959
ميع	-8960
▁vaik	-8961
▁ug	-8962
▁teh	-8963
inks	-8964
▁poll	-8965
▁specifically	-8966
хи	-8967
▁komp	-8968
▁situations	-8969
ener	-8970
▁businesses	-8971
▁zna	-8972
اده	-8973
ссия	-8974
ourable	-8975
нци	-8976
rier	-8977
izione	-8978
ат	-8979
ição	-8980
āt	-8981
▁double	-8982
▁ingen	-8983
▁nhi	-8984
▁vista	-8985
▁esa	-8986
▁理	-8987
arna	-8988
▁presence	-8989
▁nói	-8990
وه	-8991
▁вс	-8992
▁ehd	-8993
▁只	-8994
▁pul	-8995
▁مثل	-8996
umi	-8997
▁baş	-8998
▁päät	-8999
zien	-9000
▁rådet	-9001
riage	-9002
uno	-9003
▁пя	-9004
uur	-9005
▁resolución	-9006
▁него	-9007
care	-9008
ظم	-9009
▁tämän	-9010
пла	-9011
▁当	-9012
ensa	-9013
anya	-9014
▁рамках	-9015
oin	-9016
▁improved	-9017
ray	-9018
▁niin	-9019
room	-9020
▁باشه	-9021
▁tres	-9022
inary	-9023
ivas	-9024
▁kdy	-9025
▁perspective	-9026
jsk	-9027
▁vent	-9028
lap	-9029
▁famili	-9030
▁sanctions	-9031
igheder	-9032
icia	-9033
▁ún	-9034
▁geh	-9035
▁temper	-9036
▁notes	-9037
▁meidän	-9038
▁custom	-9039
▁mijnheer	-9040
edsta	-9041
рак	-9042
▁numbers	-9043
based	-9044
ơn	-9045
▁และ	-9046
▁college	-9047
cape	-9048
▁лу	-9049
▁beat	-9050
ارة	-9051
encias	-9052
τρα	-9053
▁puhemies	-9054
▁400	-9055
▁mõ	-9056
▁kiss	-9057
▁dann	-9058
▁可以	-9059
aste	-9060
ില	-9061
▁bör	-9062
▁2016	-9063
ением	-9064
قوق	-9065
▁feat	-9066
▁react	-9067
elled	-9068
кам	-9069
▁150	-9070
uld	-9071
вали	-9072
действи	-9073
ید	-9074
▁опера	-9075
▁sera	-9076
▁beste	-9077
раз	-9078
▁asta	-9079
isiin	-9080
▁wol	-9081
▁jog	-9082
بد	-9083
ướ	-9084
ích	-9085
▁pt	-9086
▁dance	-9087
▁fifth	-9088
fra	-9089
▁commitments	-9090
▁judicial	-9091
ње	-9092
▁games	-9093
▁gemeins	-9094
▁throw	-9095
▁award	-9096
zę	-9097
йо	-9098
▁mēs	-9099
▁fot	-9100
ัว	-9101
▁thế	-9102
▁мира	-9103
arten	-9104
▁组织	-9105
▁nei	-9106
bit	-9107
▁weg	-9108
▁mà	-9109
▁mio	-9110
▁oma	-9111
▁concrete	-9112
▁特别	-9113
▁ws	-9114
nego	-9115
▁soul	-9116
▁closer	-9117
▁covered	-9118
rade	-9119
▁nd	-9120
مه	-9121
aged	-9122
▁audit	-9123
nom	-9124
▁什么	-9125
▁enterprises	-9126
▁estimated	-9127
rum	-9128
▁разрабо	-9129
▁relazione	-9130
▁haar	-9131
vements	-9132
▁expression	-9133
▁lai	-9134
мой	-9135
▁premier	-9136
▁nje	-9137
▁неза	-9138
▁strat	-9139
φα	-9140
▁weiter	-9141
quar	-9142
τών	-9143
▁harm	-9144
▁วย	-9145
▁dém	-9146
▁فر	-9147
ientos	-9148
▁resident	-9149
▁σου	-9150
▁نم	-9151
▁passed	-9152
▁250	-9153
ños	-9154
▁specif	-9155
▁nivel	-9156
мини	-9157
▁shared	-9158
▁gibt	-9159
طور	-9160
▁nouve	-9161
▁traffic	-9162
seen	-9163
▁enorm	-9164
zyst	-9165
лом	-9166
▁inqu	-9167
▁daha	-9168
arte	-9169
▁doch	-9170
▁inj	-9171
urer	-9172
▁spend	-9173
ัก	-9174
endum	-9175
▁twitter	-9176
▁scale	-9177
▁rw	-9178
▁funny	-9179
wort	-9180
nas	-9181
▁intention	-9182
▁تش	-9183
▁ette	-9184
elsen	-9185
▁había	-9186
uu	-9187
▁時	-9188
▁conselho	-9189
▁wür	-9190
ουλ	-9191
▁funcion	-9192
▁бю	-9193
führ	-9194
نامج	-9195
▁cool	-9196
כול	-9197
agi	-9198
oca	-9199
полн	-9200
▁charles	-9201
ări	-9202
▁heavy	-9203
▁collect	-9204
▁эф	-9205
▁dés	-9206
ihin	-9207
▁этих	-9208
▁agent	-9209
▁nis	-9210
blea	-9211
▁käs	-9212
▁physical	-9213
▁มัน	-9214
▁сказа	-9215
ifying	-9216
su	-9217
▁других	-9218
▁résolution	-9219
▁projekt	-9220
▁mano	-9221
▁andra	-9222
▁setting	-9223
طر	-9224
▁prie	-9225
▁الات	-9226
▁schools	-9227
▁lived	-9228
▁coffee	-9229
▁связа	-9230
▁establishing	-9231
▁أك	-9232
▁greatest	-9233
ientes	-9234
▁withdra	-9235
шей	-9236
▁materials	-9237
▁isto	-9238
▁membri	-9239
aden	-9240
يف	-9241
▁今	-9242
▁inspect	-9243
plan	-9244
▁wicht	-9245
▁എ	-9246
astic	-9247
▁spo	-9248
▁royal	-9249
▁alles	-9250
know	-9251
▁真	-9252
▁авто	-9253
▁verslag	-9254
▁irland	-9255
▁rätt	-9256
▁donc	-9257
▁расхо	-9258
čiau	-9259
▁invent	-9260
ći	-9261
inde	-9262
▁женщин	-9263
▁continent	-9264
▁continues	-9265
▁συμβ	-9266
▁issued	-9267
▁ല	-9268
▁dinner	-9269
zes	-9270
ге	-9271
▁número	-9272
▁información	-9273
▁militar	-9274
▁ок	-9275
ią	-9276
▁lif	-9277
▁returned	-9278
▁bara	-9279
face	-9280
▁learned	-9281
▁helped	-9282
▁flor	-9283
▁reserv	-9284
klad	-9285
ager	-9286
▁reconst	-9287
▁ainda	-9288
▁أم	-9289
▁pension	-9290
▁às	-9291
▁страны	-9292
▁supporting	-9293
ու	-9294
▁fiscal	-9295
igheter	-9296
emme	-9297
▁putting	-9298
υσ	-9299
▁bef	-9300
aper	-9301
▁auto	-9302
▁mô	-9303
▁poli	-9304
▁gab	-9305
mme	-9306
▁نيست	-9307
▁nagy	-9308
going	-9309
▁saat	-9310
▁abord	-9311
▁اله	-9312
▁niger	-9313
▁track	-9314
▁כל	-9315
cem	-9316
▁darling	-9317
▁1988	-9318
iller	-9319
▁strict	-9320
שב	-9321
▁israeli	-9322
▁indigen	-9323
▁consiglio	-9324
iday	-9325
inar	-9326
▁disappe	-9327
inación	-9328
▁bid	-9329
▁machine	-9330
pper	-9331
▁race	-9332
nung	-9333
▁anci	-9334
سر	-9335
office	-9336
öst	-9337
iero	-9338
▁év	-9339
uksia	-9340
time	-9341
-20	-9342
▁услови	-9343
▁emot	-9344
▁derecho	-9345
▁nine	-9346
▁mensen	-9347
▁edu	-9348
öl	-9349
emen	-9350
▁beau	-9351
▁paesi	-9352
▁тор	-9353
▁контро	-9354
▁реа	-9355
▁recommendation	-9356
▁mesures	-9357
стре	-9358
▁operational	-9359
▁vision	-9360
▁tej	-9361
▁mart	-9362
ogen	-9363
▁ms	-9364
лась	-9365
▁فکر	-9366
▁сте	-9367
▁רו	-9368
embro	-9369
ând	-9370
▁greek	-9371
érence	-9372
▁wieder	-9373
▁spot	-9374
▁menj	-9375
▁консульта	-9376
▁вне	-9377
▁kaz	-9378
▁gere	-9379
▁指	-9380
▁poland	-9381
▁delay	-9382
▁cri	-9383
▁вто	-9384
▁disaster	-9385
▁constitutional	-9386
elu	-9387
wood	-9388
▁κοιν	-9389
▁ως	-9390
▁opened	-9391
▁hj	-9392
▁raad	-9393
▁98	-9394
▁其他	-9395
well	-9396
▁lại	-9397
▁знае	-9398
▁अ	-9399
▁positions	-9400
▁będ	-9401
▁standing	-9402
▁perd	-9403
nou	-9404
▁será	-9405
▁reduced	-9406
▁tahun	-9407
▁indones	-9408
inge	-9409
▁ар	-9410
▁mm	-9411
▁nearly	-9412
คน	-9413
ellä	-9414
▁archite	-9415
▁grave	-9416
agne	-9417
▁đến	-9418
▁groß	-9419
▁сум	-9420
▁ket	-9421
יות	-9422
▁dobro	-9423
▁değil	-9424
▁neighbour	-9425
▁mell	-9426
mans	-9427
▁wide	-9428
▁จ	-9429
▁respecto	-9430
▁politica	-9431
upu	-9432
νε	-9433
▁register	-9434
▁niveau	-9435
▁фу	-9436
-4	-9437
▁definition	-9438
▁heads	-9439
bas	-9440
▁як	-9441
▁sout	-9442
▁финансо	-9443
▁adequate	-9444
يات	-9445
▁189	-9446
σεων	-9447
▁európai	-9448
▁jama	-9449
▁infl	-9450
▁federation	-9451
▁tú	-9452
▁peaceful	-9453
you	-9454
▁целях	-9455
▁così	-9456
▁territories	-9457
▁μεγ	-9458
▁aş	-9459
▁learning	-9460
▁curren	-9461
venir	-9462
▁preds	-9463
▁规	-9464
▁politics	-9465
▁насе	-9466
▁miet	-9467
iene	-9468
▁kaip	-9469
ńst	-9470
ativo	-9471
▁vog	-9472
▁projet	-9473
ulla	-9474
▁recognition	-9475
▁международного	-9476
elli	-9477
য়ে	-9478
iler	-9479
عمال	-9480
▁заклю	-9481
juk	-9482
ъде	-9483
полни	-9484
▁hong	-9485
▁safegu	-9486
▁mix	-9487
ús	-9488
ách	-9489
dat	-9490
▁pää	-9491
▁åt	-9492
▁forum	-9493
▁mainly	-9494
▁acest	-9495
▁значи	-9496
ére	-9497
سات	-9498
ności	-9499
chter	-9500
was	-9501
▁welt	-9502
йте	-9503
▁65	-9504
ivamente	-9505
▁rot	-9506
▁än	-9507
ové	-9508
▁بت	-9509
วาม	-9510
▁skup	-9511
▁包	-9512
▁color	-9513
▁тебе	-9514
änk	-9515
▁ona	-9516
▁わ	-9517
ıyor	-9518
ئة	-9519
▁фе	-9520
▁intervention	-9521
house	-9522
▁dobr	-9523
▁意	-9524
▁มี	-9525
aa	-9526
ément	-9527
ranean	-9528
▁consultations	-9529
▁schw	-9530
δε	-9531
▁purpos	-9532
▁dese	-9533
▁догово	-9534
▁向	-9535
▁excess	-9536
organ	-9537
λω	-9538
▁ama	-9539
ksen	-9540
▁말	-9541
▁στον	-9542
▁عمل	-9543
লে	-9544
▁sess	-9545
▁nationale	-9546
▁preced	-9547
right	-9548
ностей	-9549
like	-9550
▁behand	-9551
▁nieu	-9552
לה	-9553
▁associated	-9554
issance	-9555
▁vii	-9556
▁wto	-9557
▁ჟ	-9558
▁vah	-9559
▁managed	-9560
▁ros	-9561
ръ	-9562
▁relatório	-9563
iß	-9564
▁recursos	-9565
▁nato	-9566
▁etc	-9567
▁ende	-9568
ları	-9569
▁milj	-9570
că	-9571
▁mang	-9572
▁fred	-9573
▁từ	-9574
astro	-9575
▁religion	-9576
▁spør	-9577
▁文	-9578
▁smart	-9579
amment	-9580
▁separate	-9581
▁primary	-9582
▁aplic	-9583
▁براي	-9584
▁drop	-9585
▁嗎	-9586
iji	-9587
وان	-9588
30	-9589
▁שא	-9590
▁internation	-9591
▁evident	-9592
বে	-9593
▁pane	-9594
phone	-9595
อะไร	-9596
mark	-9597
▁dign	-9598
▁mesmo	-9599
kim	-9600
ằng	-9601
▁уче	-9602
той	-9603
enomen	-9604
▁indigenous	-9605
них	-9606
▁employe	-9607
▁continuing	-9608
▁eines	-9609
▁expenditure	-9610
طا	-9611
▁siis	-9612
ardo	-9613
cision	-9614
▁terrible	-9615
▁lég	-9616
▁student	-9617
▁bev	-9618
▁программы	-9619
▁asylum	-9620
▁belar	-9621
прия	-9622
▁باش	-9623
▁التن	-9624
িক	-9625
λιο	-9626
▁feet	-9627
อน	-9628
lega	-9629
▁honest	-9630
▁秘	-9631
cipl	-9632
▁olduğ	-9633
nut	-9634
▁čl	-9635
▁lop	-9636
▁gut	-9637
▁europeu	-9638
يش	-9639
▁tutto	-9640
▁amely	-9641
вая	-9642
▁actividades	-9643
▁可能	-9644
тельства	-9645
kommen	-9646
▁doen	-9647
נים	-9648
▁מא	-9649
▁arv	-9650
▁robert	-9651
▁instance	-9652
▁lahko	-9653
▁cant	-9654
itty	-9655
▁ισ	-9656
ів	-9657
sky	-9658
▁colom	-9659
▁gerne	-9660
puis	-9661
▁contains	-9662
▁več	-9663
alan	-9664
▁congress	-9665
▁及	-9666
▁mismo	-9667
▁sudden	-9668
▁gele	-9669
▁sweet	-9670
▁эффектив	-9671
▁toler	-9672
unden	-9673
▁mij	-9674
▁сло	-9675
▁attacks	-9676
▁два	-9677
quarters	-9678
lior	-9679
▁lies	-9680
atos	-9681
▁grandes	-9682
ová	-9683
▁chemical	-9684
▁twenty	-9685
▁pic	-9686
▁tym	-9687
▁മ	-9688
▁lud	-9689
nium	-9690
▁거	-9691
ovať	-9692
▁viņ	-9693
▁elekt	-9694
▁england	-9695
▁salv	-9696
ень	-9697
▁社会	-9698
âm	-9699
▁sü	-9700
making	-9701
▁participate	-9702
ार	-9703
▁μπορού	-9704
▁chos	-9705
▁най	-9706
▁purposes	-9707
▁kod	-9708
▁convinced	-9709
▁tark	-9710
urt	-9711
▁impor	-9712
▁sao	-9713
upa	-9714
▁aten	-9715
чет	-9716
ishing	-9717
▁holding	-9718
▁мене	-9719
▁этот	-9720
ساعد	-9721
▁经济	-9722
▁otras	-9723
nar	-9724
▁austria	-9725
▁trip	-9726
▁2017	-9727
▁ച	-9728
▁kem	-9729
▁ميخ	-9730
▁помощи	-9731
ças	-9732
▁从	-9733
▁powerful	-9734
▁организация	-9735
▁propose	-9736
▁оказа	-9737
▁membership	-9738
▁avant	-9739
▁henry	-9740
▁baik	-9741
▁tärke	-9742
ряд	-9743
èmes	-9744
لال	-9745
▁shop	-9746
▁zag	-9747
▁chann	-9748
▁ice	-9749
▁risks	-9750
▁систе	-9751
▁审	-9752
ibile	-9753
▁puol	-9754
▁代表	-9755
jih	-9756
jd	-9757
▁waren	-9758
▁details	-9759
▁destin	-9760
▁acknow	-9761
σία	-9762
▁dall	-9763
▁афри	-9764
▁вла	-9765
akin	-9766
▁1970	-9767
ára	-9768
▁choose	-9769
▁phase	-9770
▁placed	-9771
▁políticas	-9772
èg	-9773
▁rồi	-9774
▁pursu	-9775
ов	-9776
▁artícul	-9777
ivät	-9778
▁foram	-9779
دد	-9780
▁soldiers	-9781
рая	-9782
▁للت	-9783
rupt	-9784
▁forth	-9785
▁existence	-9786
stein	-9787
▁受	-9788
bst	-9789
▁materia	-9790
▁dynam	-9791
ago	-9792
ourage	-9793
торы	-9794
▁você	-9795
▁99	-9796
▁hui	-9797
▁把	-9798
δα	-9799
▁islands	-9800
śmy	-9801
▁mă	-9802
што	-9803
▁чет	-9804
▁الدولي	-9805
▁afterno	-9806
zek	-9807
▁harry	-9808
▁personnes	-9809
▁introduce	-9810
voor	-9811
▁quot	-9812
▁berlin	-9813
▁melhor	-9814
▁stupid	-9815
▁situación	-9816
lines	-9817
อยู	-9818
▁tol	-9819
ulo	-9820
rings	-9821
▁warm	-9822
▁website	-9823
ič	-9824
▁dó	-9825
▁vál	-9826
▁représent	-9827
tet	-9828
▁принци	-9829
▁če	-9830
▁дву	-9831
stan	-9832
mel	-9833
رات	-9834
▁kah	-9835
▁éc	-9836
▁season	-9837
▁deli	-9838
▁интере	-9839
▁économique	-9840
▁mama	-9841
▁した	-9842
דר	-9843
here	-9844
▁hou	-9845
▁trial	-9846
nym	-9847
цев	-9848
▁shouldn	-9849
iej	-9850
▁شما	-9851
ullen	-9852
▁recall	-9853
▁facing	-9854
anje	-9855
▁biết	-9856
▁lam	-9857
ains	-9858
▁faith	-9859
▁cars	-9860
▁types	-9861
▁zij	-9862
asse	-9863
▁hace	-9864
▁направ	-9865
▁186	-9866
áng	-9867
▁lok	-9868
▁dict	-9869
▁statistics	-9870
▁causes	-9871
▁предлож	-9872
▁vehicles	-9873
▁см	-9874
fel	-9875
gsm	-9876
lación	-9877
▁vé	-9878
▁elő	-9879
▁nez	-9880
▁fron	-9881
▁bringing	-9882
▁dod	-9883
▁daily	-9884
imat	-9885
▁没有	-9886
▁reve	-9887
iken	-9888
ститу	-9889
▁oport	-9890
▁finland	-9891
าง	-9892
▁boss	-9893
▁romania	-9894
äh	-9895
▁97	-9896
▁pár	-9897
χι	-9898
▁содержа	-9899
cov	-9900
▁strugg	-9901
▁相	-9902
▁خوا	-9903
oč	-9904
▁우리	-9905
▁บ	-9906
▁=	-9907
govina	-9908
▁maior	-9909
бой	-9910
▁belangrij	-9911
▁여	-9912
rin	-9913
▁proport	-9914
▁decade	-9915
▁沒	-9916
▁demands	-9917
▁zav	-9918
▁subsid	-9919
iteit	-9920
▁ante	-9921
▁về	-9922
cimiento	-9923
از	-9924
ärjest	-9925
дом	-9926
▁differences	-9927
لف	-9928
▁それ	-9929
▁לע	-9930
▁asian	-9931
▁όπως	-9932
zeit	-9933
▁competitiveness	-9934
▁martin	-9935
دام	-9936
▁ميکن	-9937
▁estud	-9938
▁mums	-9939
roso	-9940
وت	-9941
▁своей	-9942
▁jetzt	-9943
▁anderen	-9944
▁troops	-9945
tar	-9946
рито	-9947
стран	-9948
▁áll	-9949
▁κύριε	-9950
▁outcome	-9951
▁otro	-9952
▁citt	-9953
▁advantage	-9954
▁coal	-9955
▁内	-9956
▁情况	-9957
▁eigen	-9958
▁secure	-9959
▁بأن	-9960
▁zwischen	-9961
13	-9962
▁вас	-9963
opol	-9964
atz	-9965
▁aircraft	-9966
▁回	-9967
▁lia	-9968
▁ministry	-9969
▁governance	-9970
▁sund	-9971
▁يع	-9972
γρα	-9973
▁sự	-9974
▁aer	-9975
▁помощ	-9976
▁mysl	-9977
▁活	-9978
▁mūs	-9979
isy	-9980
▁afternoon	-9981
aines	-9982
▁newsp	-9983
▁العمل	-9984
▁glass	-9985
িন	-9986
ثة	-9987
irs	-9988
▁jsou	-9989
▁وإ	-9990
▁generation	-9991
▁gost	-9992
▁vene	-9993
▁claims	-9994
▁decir	-9995
ും	-9996
ného	-9997
тей	-9998
▁dura	-9999
▁até	-10000
▁plane	-10001
اره	-10002
▁الاقتصاد	-10003
▁내	-10004
бра	-10005
кого	-10006
▁agora	-10007
▁ました	-10008
▁roma	-10009
▁obstac	-10010
▁настояще	-10011
▁font	-10012
isty	-10013
ei	-10014
▁unsere	-10015
▁95	-10016
▁fifty	-10017
▁る	-10018
▁mahd	-10019
▁rain	-10020
▁arrived	-10021
▁headquarters	-10022
▁ανά	-10023
▁表	-10024
veis	-10025
▁laat	-10026
▁أيضا	-10027
▁elector	-10028
에서	-10029
▁unac	-10030
▁horse	-10031
▁alban	-10032
فيذ	-10033
▁contem	-10034
ктов	-10035
▁pub	-10036
قرير	-10037
rze	-10038
▁|	-10039
дра	-10040
▁bound	-10041
▁gef	-10042
ske	-10043
▁tõ	-10044
staten	-10045
▁bran	-10046
prav	-10047
▁tens	-10048
▁cambi	-10049
▁zoals	-10050
ốn	-10051
ât	-10052
uš	-10053
▁つ	-10054
ें	-10055
▁talks	-10056
▁precisely	-10057
▁kak	-10058
▁女	-10059
▁assemblée	-10060
▁период	-10061
▁eld	-10062
▁unterst	-10063
▁immediate	-10064
▁bare	-10065
τικές	-10066
▁franc	-10067
یم	-10068
▁offici	-10069
▁اي	-10070
▁ско	-10071
êt	-10072
رح	-10073
▁поддерж	-10074
▁لي	-10075
▁συνε	-10076
teri	-10077
▁organized	-10078
روع	-10079
▁explan	-10080
▁max	-10081
ateurs	-10082
▁facto	-10083
ają	-10084
kä	-10085
▁ει	-10086
▁בא	-10087
▁kaž	-10088
▁pac	-10089
▁meine	-10090
▁граждан	-10091
▁kao	-10092
▁চ	-10093
▁μπορεί	-10094
ellt	-10095
▁다	-10096
▁gennem	-10097
stav	-10098
▁immer	-10099
▁жиз	-10100
шу	-10101
▁进行	-10102
▁état	-10103
how	-10104
▁cath	-10105
▁მ	-10106
▁lit	-10107
▁റ	-10108
▁خب	-10109
▁reducing	-10110
igi	-10111
▁teil	-10112
▁следует	-10113
ρίζ	-10114
▁tick	-10115
▁vam	-10116
▁civilian	-10117
▁现	-10118
▁примен	-10119
▁шта	-10120
▁fuel	-10121
▁吗	-10122
▁ल	-10123
▁podemos	-10124
anced	-10125
īt	-10126
▁csak	-10127
▁summ	-10128
して	-10129
▁bilo	-10130
▁šta	-10131
aro	-10132
rary	-10133
▁有关	-10134
▁aqui	-10135
ento	-10136
▁بخ	-10137
ius	-10138
▁planned	-10139
istes	-10140
▁méd	-10141
▁pill	-10142
امل	-10143
▁dólar	-10144
▁juris	-10145
▁cancer	-10146
▁alors	-10147
liance	-10148
▁madame	-10149
▁prepare	-10150
▁高	-10151
▁λό	-10152
▁тран	-10153
▁spok	-10154
вно	-10155
▁visa	-10156
▁나	-10157
▁амери	-10158
γω	-10159
▁وج	-10160
atro	-10161
▁structures	-10162
irt	-10163
▁jean	-10164
▁добро	-10165
▁ნ	-10166
▁dispon	-10167
рон	-10168
▁позво	-10169
▁software	-10170
▁mistake	-10171
▁reh	-10172
stellen	-10173
ód	-10174
انون	-10175
▁ら	-10176
▁ambiente	-10177
▁politiques	-10178
▁règ	-10179
▁truly	-10180
ман	-10181
▁offered	-10182
cé	-10183
▁信	-10184
▁collection	-10185
▁entirely	-10186
▁afin	-10187
▁vě	-10188
arian	-10189
▁nether	-10190
дини	-10191
▁factors	-10192
▁taj	-10193
▁ancora	-10194
▁stories	-10195
▁前	-10196
гов	-10197
▁dien	-10198
▁fæ	-10199
▁purch	-10200
▁elles	-10201
▁unable	-10202
▁networks	-10203
▁以及	-10204
لاح	-10205
▁言	-10206
▁breat	-10207
▁lt	-10208
▁ál	-10209
▁armen	-10210
▁hak	-10211
▁posts	-10212
▁frag	-10213
▁primera	-10214
▁ott	-10215
▁analy	-10216
ounded	-10217
شون	-10218
yors	-10219
▁комп	-10220
▁toe	-10221
▁ox	-10222
▁96	-10223
▁trebuie	-10224
▁外	-10225
äller	-10226
▁facilitate	-10227
▁sched	-10228
▁jane	-10229
▁marry	-10230
▁dimension	-10231
▁facilities	-10232
▁represents	-10233
nte	-10234
sterd	-10235
ző	-10236
▁καλ	-10237
lor	-10238
▁coin	-10239
unque	-10240
▁lag	-10241
▁เรา	-10242
вести	-10243
▁spring	-10244
aus	-10245
بت	-10246
▁segundo	-10247
▁chamber	-10248
▁튻	-10249
▁isol	-10250
▁κι	-10251
▁wirtschaft	-10252
▁أنه	-10253
▁какво	-10254
▁eventually	-10255
inea	-10256
ável	-10257
▁possibil	-10258
▁беше	-10259
▁дума	-10260
жива	-10261
▁faz	-10262
▁chose	-10263
▁kys	-10264
▁näm	-10265
▁olisi	-10266
▁dus	-10267
▁mars	-10268
▁colonel	-10269
▁教	-10270
▁lavoro	-10271
▁toutes	-10272
▁appears	-10273
▁conflicts	-10274
▁के	-10275
ческие	-10276
▁officers	-10277
wers	-10278
čin	-10279
▁unterstüt	-10280
▁būt	-10281
▁кри	-10282
īd	-10283
▁asam	-10284
▁ولك	-10285
▁wake	-10286
uren	-10287
▁regering	-10288
▁bør	-10289
▁suffering	-10290
▁jaar	-10291
لام	-10292
жение	-10293
มัน	-10294
etaan	-10295
▁grup	-10296
▁системы	-10297
ieurs	-10298
▁pueden	-10299
▁nick	-10300
▁strange	-10301
itious	-10302
▁governo	-10303
diction	-10304
어요	-10305
▁improvement	-10306
▁algunos	-10307
ностью	-10308
nud	-10309
endi	-10310
ставля	-10311
vall	-10312
eurs	-10313
▁jó	-10314
▁geneva	-10315
wal	-10316
dem	-10317
▁sob	-10318
креп	-10319
ậy	-10320
▁xx	-10321
ối	-10322
▁attend	-10323
itel	-10324
▁dirig	-10325
▁tourism	-10326
oking	-10327
▁أع	-10328
▁marriage	-10329
úc	-10330
▁участи	-10331
▁sweden	-10332
▁finns	-10333
das	-10334
ริ	-10335
▁مؤ	-10336
▁moi	-10337
▁方案	-10338
zegovina	-10339
▁proud	-10340
▁alleen	-10341
▁které	-10342
нови	-10343
▁forg	-10344
▁οικο	-10345
▁figures	-10346
▁programas	-10347
▁prosper	-10348
▁existe	-10349
chod	-10350
▁francis	-10351
▁trop	-10352
inta	-10353
▁förs	-10354
▁sale	-10355
▁enh	-10356
othes	-10357
ката	-10358
fr	-10359
▁strongly	-10360
▁goodbye	-10361
▁även	-10362
▁παρά	-10363
тий	-10364
▁าน	-10365
rang	-10366
ließ	-10367
imą	-10368
ью	-10369
▁由	-10370
etto	-10371
▁remained	-10372
▁utan	-10373
▁charlie	-10374
▁bạn	-10375
▁πρόεδ	-10376
ких	-10377
▁grat	-10378
فق	-10379
▁numerous	-10380
▁netherlands	-10381
▁achieving	-10382
です	-10383
▁beslut	-10384
▁представля	-10385
θέ	-10386
▁fé	-10387
▁vigt	-10388
ικών	-10389
▁द	-10390
▁degree	-10391
▁nunca	-10392
▁делега	-10393
▁adem	-10394
▁britain	-10395
▁fit	-10396
über	-10397
▁leadership	-10398
▁abol	-10399
▁supplement	-10400
▁enqu	-10401
mann	-10402
▁believed	-10403
▁пункт	-10404
τικής	-10405
▁بشأن	-10406
▁islamic	-10407
▁ꆢ	-10408
มี	-10409
▁depuis	-10410
build	-10411
▁evaluation	-10412
▁helping	-10413
▁188	-10414
▁autonom	-10415
▁motiv	-10416
standing	-10417
gor	-10418
▁sami	-10419
▁wild	-10420
rea	-10421
▁بز	-10422
▁家	-10423
▁gå	-10424
▁ves	-10425
▁settlement	-10426
▁recom	-10427
ску	-10428
▁assim	-10429
▁gaza	-10430
▁può	-10431
called	-10432
ulta	-10433
писа	-10434
log	-10435
minister	-10436
▁cậ	-10437
▁которых	-10438
▁nga	-10439
▁highest	-10440
▁partie	-10441
aret	-10442
▁names	-10443
▁различ	-10444
etic	-10445
▁مست	-10446
▁klar	-10447
alu	-10448
▁лиц	-10449
▁frau	-10450
▁wine	-10451
▁গ	-10452
▁tired	-10453
ville	-10454
▁jūs	-10455
▁follows	-10456
▁apenas	-10457
▁pani	-10458
▁ting	-10459
pak	-10460
▁prez	-10461
▁работы	-10462
▁judge	-10463
gé	-10464
atan	-10465
▁amsterd	-10466
▁fois	-10467
▁totally	-10468
▁patients	-10469
▁uw	-10470
woord	-10471
▁underst	-10472
▁dois	-10473
▁この	-10474
▁эта	-10475
otte	-10476
▁يک	-10477
▁pus	-10478
▁advoc	-10479
▁dy	-10480
▁går	-10481
▁serie	-10482
wik	-10483
▁finished	-10484
▁suggested	-10485
▁600	-10486
▁sudan	-10487
igned	-10488
грани	-10489
▁sosten	-10490
▁dollar	-10491
rou	-10492
▁réal	-10493
ojen	-10494
pel	-10495
ují	-10496
▁punish	-10497
▁чем	-10498
nehmen	-10499
▁reser	-10500
aran	-10501
▁irish	-10502
▁completed	-10503
▁enhan	-10504
▁extre	-10505
▁tijd	-10506
▁ella	-10507
▁joined	-10508
arbeit	-10509
▁уже	-10510
▁kraj	-10511
▁отде	-10512
▁конвенции	-10513
▁huom	-10514
amin	-10515
▁77	-10516
▁будут	-10517
▁theory	-10518
org	-10519
▁parti	-10520
▁kommiss	-10521
▁consultation	-10522
▁geograph	-10523
▁tob	-10524
▁uncle	-10525
amaan	-10526
▁déclar	-10527
jed	-10528
▁geld	-10529
άρχ	-10530
▁vår	-10531
zas	-10532
ussen	-10533
ellem	-10534
▁preparation	-10535
ança	-10536
crat	-10537
▁повест	-10538
▁положения	-10539
рам	-10540
▁missions	-10541
▁ри	-10542
zk	-10543
eleid	-10544
▁могут	-10545
▁보	-10546
ads	-10547
wij	-10548
bere	-10549
▁čas	-10550
▁bind	-10551
alia	-10552
pol	-10553
▁tabled	-10554
▁произво	-10555
▁damit	-10556
▁roku	-10557
▁stimul	-10558
igung	-10559
▁georgia	-10560
▁nuevo	-10561
▁pole	-10562
▁ло	-10563
▁zat	-10564
▁energie	-10565
▁print	-10566
▁থ	-10567
▁제	-10568
▁ocean	-10569
▁capit	-10570
▁فإن	-10571
▁unique	-10572
▁ald	-10573
ioon	-10574
▁56	-10575
дам	-10576
▁inse	-10577
▁veľ	-10578
▁tang	-10579
▁energia	-10580
νον	-10581
▁möglich	-10582
▁göra	-10583
▁detailed	-10584
▁fors	-10585
iseen	-10586
٠٠	-10587
▁torture	-10588
▁счита	-10589
▁bought	-10590
▁platform	-10591
שר	-10592
▁afford	-10593
▁tapi	-10594
▁olla	-10595
معية	-10596
גי	-10597
▁belarus	-10598
▁อน	-10599
▁dentro	-10600
▁properly	-10601
قدم	-10602
τεύ	-10603
▁mud	-10604
▁ultim	-10605
atri	-10606
гре	-10607
▁komiss	-10608
▁foundation	-10609
ests	-10610
▁siin	-10611
▁asamblea	-10612
pass	-10613
ющим	-10614
▁ข	-10615
▁määr	-10616
▁práv	-10617
▁lleg	-10618
▁ومن	-10619
فض	-10620
▁woll	-10621
ska	-10622
että	-10623
▁approxim	-10624
▁هناك	-10625
▁الحكوم	-10626
όσ	-10627
▁цент	-10628
▁forsk	-10629
▁hero	-10630
▁jew	-10631
λοι	-10632
iju	-10633
▁recovery	-10634
▁žel	-10635
▁users	-10636
▁advice	-10637
▁pessoas	-10638
▁vše	-10639
▁bulgaria	-10640
▁acting	-10641
▁profes	-10642
▁servicios	-10643
τας	-10644
▁predsed	-10645
▁inten	-10646
▁против	-10647
▁sides	-10648
▁title	-10649
рован	-10650
▁brand	-10651
▁저	-10652
už	-10653
ài	-10654
▁說	-10655
▁proyecto	-10656
entially	-10657
▁parece	-10658
▁ე	-10659
▁その	-10660
▁مس	-10661
▁cuenta	-10662
▁mucho	-10663
▁dů	-10664
▁europäische	-10665
ез	-10666
pow	-10667
▁svilu	-10668
ικές	-10669
▁contrary	-10670
indo	-10671
▁brut	-10672
▁insurance	-10673
▁fields	-10674
rated	-10675
▁gü	-10676
▁functions	-10677
tem	-10678
▁punkt	-10679
▁اينجا	-10680
zam	-10681
▁制	-10682
▁seper	-10683
▁мате	-10684
▁compte	-10685
iced	-10686
▁dólares	-10687
▁гу	-10688
àn	-10689
cond	-10690
▁zas	-10691
шен	-10692
rd	-10693
inal	-10694
▁cig	-10695
▁maintenance	-10696
miss	-10697
▁laid	-10698
▁granted	-10699
▁чо	-10700
auf	-10701
otta	-10702
▁onde	-10703
▁υπάρχ	-10704
▁认	-10705
prus	-10706
▁قبل	-10707
cido	-10708
okat	-10709
▁processo	-10710
ilib	-10711
▁ili	-10712
▁nhưng	-10713
▁croatia	-10714
▁tror	-10715
▁pure	-10716
▁mahdoll	-10717
▁amér	-10718
▁suspect	-10719
ateful	-10720
▁orders	-10721
ρια	-10722
edo	-10723
▁items	-10724
לו	-10725
▁gall	-10726
▁bili	-10727
▁desire	-10728
▁display	-10729
▁един	-10730
▁انت	-10731
▁دست	-10732
oire	-10733
▁sounds	-10734
▁เข	-10735
▁arī	-10736
▁thousand	-10737
▁epis	-10738
ování	-10739
که	-10740
▁stø	-10741
▁vē	-10742
▁επιτροπή	-10743
جتما	-10744
▁ici	-10745
▁tudi	-10746
▁bridge	-10747
▁parlamentin	-10748
▁πρα	-10749
▁oportun	-10750
▁εδ	-10751
▁schengen	-10752
▁кро	-10753
▁expans	-10754
▁pose	-10755
ước	-10756
▁秘书	-10757
▁hea	-10758
άζ	-10759
gele	-10760
زم	-10761
▁zad	-10762
▁pointed	-10763
▁minorities	-10764
ματος	-10765
▁包括	-10766
▁свобо	-10767
▁option	-10768
▁upd	-10769
lings	-10770
▁plenary	-10771
▁vă	-10772
▁currency	-10773
▁még	-10774
▁号	-10775
▁confirm	-10776
▁αντι	-10777
▁female	-10778
▁compared	-10779
▁evro	-10780
▁doct	-10781
▁ولكن	-10782
حي	-10783
acă	-10784
▁incent	-10785
▁mint	-10786
▁所有	-10787
▁interview	-10788
▁sino	-10789
▁kuiten	-10790
▁zg	-10791
▁blind	-10792
▁jose	-10793
▁voluntary	-10794
ips	-10795
ουργ	-10796
▁strategies	-10797
▁confront	-10798
шений	-10799
▁რ	-10800
kol	-10801
▁recognized	-10802
▁вси	-10803
▁propor	-10804
▁nueva	-10805
▁аз	-10806
amis	-10807
▁settle	-10808
▁существ	-10809
▁marked	-10810
kyt	-10811
▁нау	-10812
cional	-10813
▁tib	-10814
▁male	-10815
▁кога	-10816
▁prospect	-10817
▁mutual	-10818
▁queen	-10819
▁caught	-10820
øl	-10821
▁ね	-10822
vos	-10823
فس	-10824
▁vär	-10825
▁демо	-10826
äre	-10827
▁centr	-10828
wir	-10829
▁执	-10830
adamente	-10831
▁οποία	-10832
▁אנ	-10833
θή	-10834
blique	-10835
friend	-10836
▁muchos	-10837
▁практи	-10838
orang	-10839
▁papel	-10840
▁dopo	-10841
▁courage	-10842
bir	-10843
imy	-10844
▁יש	-10845
▁bisa	-10846
▁gross	-10847
▁haus	-10848
▁llam	-10849
▁世界	-10850
▁investigation	-10851
▁install	-10852
▁photo	-10853
▁cep	-10854
▁แต	-10855
▁trabalho	-10856
▁partir	-10857
▁adult	-10858
▁democrats	-10859
▁satell	-10860
▁territorial	-10861
▁viss	-10862
halb	-10863
▁ше	-10864
jel	-10865
▁chapter	-10866
▁showed	-10867
atre	-10868
▁served	-10869
▁сов	-10870
▁willen	-10871
▁wishes	-10872
▁zač	-10873
▁launched	-10874
▁项	-10875
▁هل	-10876
rich	-10877
▁années	-10878
inas	-10879
▁invited	-10880
▁barroso	-10881
▁career	-10882
סי	-10883
▁свое	-10884
▁spørgsm	-10885
ضي	-10886
▁põ	-10887
▁измен	-10888
μβ	-10889
▁jus	-10890
σουν	-10891
▁информации	-10892
▁chuy	-10893
▁système	-10894
aju	-10895
▁missing	-10896
▁entry	-10897
▁blan	-10898
▁αποτε	-10899
ούλιο	-10900
▁larg	-10901
iza	-10902
▁ан	-10903
▁units	-10904
▁однако	-10905
▁arrested	-10906
▁sana	-10907
emm	-10908
▁كانت	-10909
▁ima	-10910
▁mitgliedsta	-10911
stu	-10912
льно	-10913
▁seine	-10914
▁match	-10915
areness	-10916
▁٦	-10917
▁mening	-10918
▁tě	-10919
▁过	-10920
гле	-10921
uting	-10922
▁magaz	-10923
iros	-10924
▁faced	-10925
kap	-10926
▁用	-10927
▁ديگه	-10928
ëm	-10929
iante	-10930
▁jesus	-10931
jak	-10932
▁cyprus	-10933
▁επίσης	-10934
▁deix	-10935
▁blij	-10936
▁apoyo	-10937
وع	-10938
idu	-10939
▁temos	-10940
ονται	-10941
▁kadar	-10942
год	-10943
▁เป	-10944
▁arbit	-10945
▁dokument	-10946
zial	-10947
▁además	-10948
▁принима	-10949
▁reinfor	-10950
▁cens	-10951
▁комиссии	-10952
▁gad	-10953
▁delegations	-10954
▁hod	-10955
حو	-10956
▁jahr	-10957
▁еще	-10958
▁boat	-10959
▁liik	-10960
هر	-10961
▁changing	-10962
olla	-10963
▁unanim	-10964
ėj	-10965
▁некоторы	-10966
▁auc	-10967
▁bern	-10968
▁extend	-10969
▁centres	-10970
▁64	-10971
▁vic	-10972
▁المج	-10973
▁transparent	-10974
ября	-10975
▁femmes	-10976
▁ова	-10977
▁prol	-10978
▁bila	-10979
▁cav	-10980
▁wealth	-10981
▁approval	-10982
▁william	-10983
▁ró	-10984
▁vå	-10985
vala	-10986
▁stick	-10987
▁richard	-10988
ίνει	-10989
ан	-10990
▁luxemb	-10991
▁empresas	-10992
▁руко	-10993
щу	-10994
▁наро	-10995
▁不是	-10996
▁finish	-10997
▁interna	-10998
▁movie	-10999
▁amsterdam	-11000
▁heute	-11001
atte	-11002
▁turkish	-11003
▁competitive	-11004
▁бюд	-11005
âu	-11006
zone	-11007
▁না	-11008
▁solu	-11009
ceğ	-11010
▁mediterranean	-11011
▁undp	-11012
▁muut	-11013
▁honour	-11014
▁disapp	-11015
▁এক	-11016
เขา	-11017
arias	-11018
שים	-11019
ിന	-11020
▁somewhere	-11021
▁ভ	-11022
▁thor	-11023
▁bruss	-11024
stå	-11025
▁ejem	-11026
▁「	-11027
āj	-11028
▁voll	-11029
ifications	-11030
▁destruction	-11031
▁déj	-11032
λον	-11033
▁consent	-11034
▁kab	-11035
ké	-11036
▁helt	-11037
zik	-11038
▁τέ	-11039
دول	-11040
▁keeping	-11041
ực	-11042
imen	-11043
▁prev	-11044
ální	-11045
▁düş	-11046
▁הח	-11047
▁ambass	-11048
▁просто	-11049
▁stá	-11050
тому	-11051
▁alliance	-11052
الات	-11053
verg	-11054
inu	-11055
▁ehdot	-11056
▁cash	-11057
▁уби	-11058
وام	-11059
▁nev	-11060
▁怎	-11061
eras	-11062
▁cuestión	-11063
▁先生	-11064
▁abuse	-11065
kr	-11066
▁vậy	-11067
▁novel	-11068
▁bard	-11069
blik	-11070
▁αρχ	-11071
▁tutta	-11072
rac	-11073
▁hundreds	-11074
ită	-11075
▁targets	-11076
▁ő	-11077
▁качестве	-11078
▁drawn	-11079
ูก	-11080
▁κοινοβ	-11081
▁68	-11082
▁prisoners	-11083
емых	-11084
▁пока	-11085
▁vamos	-11086
▁58	-11087
▁saint	-11088
▁stopped	-11089
▁pin	-11090
heen	-11091
▁herzegovina	-11092
ính	-11093
φων	-11094
▁operating	-11095
▁maximum	-11096
▁틩	-11097
▁وقد	-11098
āci	-11099
▁كما	-11100
▁ignor	-11101
jourd	-11102
▁sap	-11103
▁maggi	-11104
▁gäller	-11105
▁flu	-11106
cture	-11107
▁aujourd	-11108
▁cart	-11109
▁driving	-11110
▁tratado	-11111
▁мини	-11112
ложи	-11113
▁terrorist	-11114
▁ppe	-11115
▁tavo	-11116
▁террито	-11117
▁undertaken	-11118
▁آره	-11119
▁mener	-11120
▁faut	-11121
▁mida	-11122
▁treaties	-11123
▁inspe	-11124
γγ	-11125
▁derfor	-11126
▁conoc	-11127
ować	-11128
▁وع	-11129
▁biti	-11130
▁dl	-11131
▁tego	-11132
econom	-11133
▁sod	-11134
▁remar	-11135
▁diam	-11136
▁ши	-11137
▁becomes	-11138
▁состоя	-11139
▁̀	-11140
cons	-11141
▁photograph	-11142
emble	-11143
ין	-11144
▁christmas	-11145
▁spécial	-11146
φορά	-11147
▁выра	-11148
▁pia	-11149
هد	-11150
▁prakt	-11151
fte	-11152
šu	-11153
▁gather	-11154
▁lucky	-11155
arb	-11156
▁ด	-11157
▁goog	-11158
▁للأ	-11159
▁unacceptable	-11160
▁pilot	-11161
▁wszyst	-11162
ipul	-11163
▁problém	-11164
▁الخاص	-11165
hou	-11166
▁orden	-11167
pois	-11168
▁carta	-11169
ijas	-11170
▁presente	-11171
▁awareness	-11172
▁debates	-11173
▁นี	-11174
▁hers	-11175
▁tir	-11176
▁ช	-11177
leh	-11178
▁burden	-11179
стру	-11180
▁通过	-11181
ناء	-11182
▁marit	-11183
før	-11184
ivent	-11185
으로	-11186
ươ	-11187
▁équ	-11188
▁همه	-11189
▁حس	-11190
▁57	-11191
▁causa	-11192
bih	-11193
▁sup	-11194
▁adam	-11195
▁accounts	-11196
▁vaj	-11197
▁artikel	-11198
▁supervis	-11199
λει	-11200
เรา	-11201
▁bunu	-11202
▁нор	-11203
צה	-11204
▁które	-11205
تى	-11206
▁лет	-11207
▁pam	-11208
▁repú	-11209
▁再	-11210
▁shad	-11211
raient	-11212
indi	-11213
крати	-11214
▁которая	-11215
ými	-11216
▁convert	-11217
▁moje	-11218
▁capable	-11219
طل	-11220
▁reb	-11221
▁már	-11222
▁donde	-11223
ופ	-11224
▁deliber	-11225
▁fæll	-11226
▁bü	-11227
▁ecu	-11228
▁desert	-11229
▁тво	-11230
bern	-11231
▁onorevole	-11232
▁všet	-11233
וח	-11234
▁grateful	-11235
▁essa	-11236
▁основе	-11237
orno	-11238
▁suit	-11239
wend	-11240
▁calcul	-11241
▁provisional	-11242
قيق	-11243
▁inté	-11244
iso	-11245
▁بعض	-11246
orme	-11247
▁located	-11248
▁pse	-11249
▁éle	-11250
▁gaan	-11251
▁совет	-11252
▁blow	-11253
▁kanssa	-11254
виси	-11255
ços	-11256
▁cil	-11257
▁lidstaten	-11258
gem	-11259
▁busy	-11260
▁importantes	-11261
▁crow	-11262
▁aktiv	-11263
ята	-11264
▁haz	-11265
▁llev	-11266
γή	-11267
▁く	-11268
aled	-11269
▁wię	-11270
อบ	-11271
istencia	-11272
▁czech	-11273
rence	-11274
▁weather	-11275
▁които	-11276
▁ib	-11277
▁tecnolog	-11278
▁ihm	-11279
▁shar	-11280
rating	-11281
▁complement	-11282
▁образом	-11283
▁día	-11284
edly	-11285
ταση	-11286
▁zullen	-11287
▁spect	-11288
льных	-11289
μένο	-11290
▁rim	-11291
▁1986	-11292
▁explos	-11293
▁rak	-11294
▁identity	-11295
▁différ	-11296
▁talman	-11297
▁יכול	-11298
▁moins	-11299
▁особ	-11300
▁ใช	-11301
▁older	-11302
▁extraordin	-11303
bij	-11304
▁78	-11305
▁allt	-11306
▁decades	-11307
▁fro	-11308
▁ther	-11309
▁решение	-11310
itaire	-11311
▁включая	-11312
▁partes	-11313
▁sue	-11314
▁desenvolv	-11315
▁identified	-11316
▁عند	-11317
▁rare	-11318
▁διε	-11319
▁لأ	-11320
▁למ	-11321
▁trata	-11322
vens	-11323
▁museum	-11324
▁لقد	-11325
▁μόνο	-11326
ườ	-11327
▁naturally	-11328
▁famous	-11329
▁fondament	-11330
▁philos	-11331
▁calif	-11332
▁شد	-11333
issä	-11334
elig	-11335
صب	-11336
kem	-11337
▁지	-11338
▁efters	-11339
▁ktoré	-11340
▁1987	-11341
▁innoc	-11342
handling	-11343
▁услу	-11344
▁cul	-11345
▁cher	-11346
president	-11347
▁tran	-11348
▁死	-11349
▁техни	-11350
▁serbia	-11351
▁absence	-11352
▁rwanda	-11353
▁introduc	-11354
▁defined	-11355
▁budgets	-11356
▁lieuten	-11357
▁sli	-11358
▁générale	-11359
▁wen	-11360
▁коор	-11361
▁ovo	-11362
yan	-11363
▁هر	-11364
▁substantial	-11365
heden	-11366
▁entr	-11367
▁mellem	-11368
fort	-11369
▁rah	-11370
▁قرار	-11371
▁citizen	-11372
▁obligation	-11373
▁impl	-11374
тни	-11375
▁trag	-11376
▁سر	-11377
▁lj	-11378
▁linked	-11379
▁группы	-11380
lantic	-11381
▁loved	-11382
▁hast	-11383
pie	-11384
▁fault	-11385
▁migration	-11386
kaa	-11387
▁需要	-11388
▁শ	-11389
وص	-11390
▁sina	-11391
▁bond	-11392
▁manage	-11393
▁uso	-11394
ése	-11395
▁estão	-11396
▁решения	-11397
▁manera	-11398
łe	-11399
министра	-11400
▁yhd	-11401
gian	-11402
atud	-11403
zenia	-11404
زيز	-11405
▁spoke	-11406
▁1960	-11407
▁beach	-11408
▁multi	-11409
يت	-11410
▁betæn	-11411
▁الإنس	-11412
aces	-11413
hren	-11414
▁artículo	-11415
▁aims	-11416
▁iron	-11417
▁sekä	-11418
▁sentido	-11419
▁cooperación	-11420
نگ	-11421
▁cái	-11422
стой	-11423
▁ένω	-11424
amenti	-11425
▁temporary	-11426
▁pleasure	-11427
▁độ	-11428
ـــ	-11429
▁terra	-11430
olen	-11431
▁semua	-11432
▁tienen	-11433
▁conducted	-11434
▁°	-11435
▁бра	-11436
▁правительства	-11437
▁selbst	-11438
▁consumption	-11439
▁organism	-11440
sim	-11441
▁yok	-11442
▁hill	-11443
▁koh	-11444
▁valu	-11445
▁creo	-11446
▁reik	-11447
ész	-11448
iskt	-11449
▁داره	-11450
▁diz	-11451
▁nás	-11452
▁ша	-11453
▁lands	-11454
▁atmos	-11455
▁trafficking	-11456
ровать	-11457
рение	-11458
▁mnie	-11459
▁той	-11460
▁1985	-11461
وك	-11462
▁两	-11463
oten	-11464
▁seperti	-11465
нием	-11466
▁freedoms	-11467
valtio	-11468
чень	-11469
elő	-11470
▁quan	-11471
τεί	-11472
▁activités	-11473
ést	-11474
unis	-11475
▁hide	-11476
▁konst	-11477
กัน	-11478
عب	-11479
▁tools	-11480
ใน	-11481
▁når	-11482
▁الي	-11483
wat	-11484
▁где	-11485
ária	-11486
▁carbon	-11487
▁66	-11488
▁нико	-11489
▁bow	-11490
rif	-11491
▁finding	-11492
aración	-11493
▁个	-11494
▁determined	-11495
▁première	-11496
▁」	-11497
▁weight	-11498
▁anno	-11499
▁centro	-11500
▁bede	-11501
▁noget	-11502
jä	-11503
▁suas	-11504
icamente	-11505
ുന	-11506
▁cow	-11507
▁involvement	-11508
ancy	-11509
veck	-11510
▁zaj	-11511
مت	-11512
▁easier	-11513
▁đang	-11514
tages	-11515
▁killing	-11516
▁collective	-11517
وز	-11518
▁lieutenant	-11519
▁الدولية	-11520
▁brown	-11521
ativas	-11522
æld	-11523
▁solve	-11524
▁대	-11525
▁apar	-11526
12	-11527
راق	-11528
iei	-11529
▁уве	-11530
▁collaboration	-11531
▁决议	-11532
▁частности	-11533
▁البلدان	-11534
lared	-11535
▁ihrer	-11536
áll	-11537
encial	-11538
▁milk	-11539
▁nào	-11540
▁pacific	-11541
▁ride	-11542
▁otra	-11543
▁allem	-11544
▁φο	-11545
▁energi	-11546
▁όχι	-11547
▁indicated	-11548
estra	-11549
5-0	-11550
čno	-11551
ận	-11552
▁cup	-11553
щие	-11554
▁jump	-11555
▁legis	-11556
▁mene	-11557
سط	-11558
rias	-11559
▁hej	-11560
▁deploy	-11561
arg	-11562
νή	-11563
▁extended	-11564
law	-11565
ường	-11566
▁hoc	-11567
▁اگه	-11568
▁displa	-11569
▁gøre	-11570
▁änd	-11571
▁previously	-11572
atter	-11573
▁socied	-11574
▁الآن	-11575
ahl	-11576
roz	-11577
▁revised	-11578
▁mondiale	-11579
▁poco	-11580
▁talked	-11581
▁kay	-11582
atically	-11583
▁цель	-11584
▁cómo	-11585
وة	-11586
▁rout	-11587
▁ассамблеи	-11588
▁república	-11589
▁voy	-11590
▁ontwik	-11591
▁landen	-11592
▁moż	-11593
▁educational	-11594
▁nouvel	-11595
▁thomas	-11596
зе	-11597
▁spending	-11598
▁数	-11599
elor	-11600
▁vorsch	-11601
ظمة	-11602
▁폐	-11603
▁ley	-11604
▁mike	-11605
ружи	-11606
▁reiter	-11607
▁conclude	-11608
▁شده	-11609
かった	-11610
อา	-11611
ämme	-11612
▁socialist	-11613
▁scared	-11614
vod	-11615
vad	-11616
vous	-11617
▁tener	-11618
▁google	-11619
▁discipl	-11620
▁volta	-11621
enses	-11622
▁betänk	-11623
▁przez	-11624
coup	-11625
▁reprodu	-11626
▁samen	-11627
▁سا	-11628
ätä	-11629
▁notice	-11630
▁ох	-11631
▁minut	-11632
▁entered	-11633
▁teacher	-11634
▁nova	-11635
▁koji	-11636
▁coopération	-11637
icks	-11638
▁സ	-11639
▁pid	-11640
▁votre	-11641
sam	-11642
▁dare	-11643
بار	-11644
▁possibly	-11645
▁можно	-11646
▁votes	-11647
▁করে	-11648
▁pense	-11649
▁85	-11650
ční	-11651
▁promised	-11652
▁recommended	-11653
▁balt	-11654
াদ	-11655
gd	-11656
lying	-11657
▁σχε	-11658
▁lebih	-11659
▁allen	-11660
▁maken	-11661
▁mı	-11662
▁winter	-11663
▁εδώ	-11664
▁rang	-11665
▁hoy	-11666
▁wsp	-11667
▁involving	-11668
▁일	-11669
▁racial	-11670
▁σημαν	-11671
▁ænd	-11672
aly	-11673
▁diesen	-11674
tera	-11675
▁concluded	-11676
▁总	-11677
▁执行	-11678
rí	-11679
▁merely	-11680
ơi	-11681
ความ	-11682
ним	-11683
▁mouth	-11684
▁staat	-11685
▁ciò	-11686
▁window	-11687
مر	-11688
▁הת	-11689
ức	-11690
▁electronic	-11691
▁ถ	-11692
▁ts	-11693
▁νέ	-11694
▁меры	-11695
.10	-11696
▁exception	-11697
▁нам	-11698
▁supplies	-11699
شار	-11700
▁než	-11701
▁satu	-11702
▁submit	-11703
▁proti	-11704
▁param	-11705
▁rose	-11706
▁liss	-11707
▁gast	-11708
weise	-11709
▁fresh	-11710
▁offices	-11711
▁integra	-11712
▁cadre	-11713
عاون	-11714
▁sesiones	-11715
▁пов	-11716
▁privat	-11717
следова	-11718
▁bine	-11719
▁larger	-11720
ception	-11721
▁smith	-11722
δή	-11723
▁оцен	-11724
▁等	-11725
▁producers	-11726
aris	-11727
▁approximately	-11728
▁vse	-11729
▁easily	-11730
▁merk	-11731
▁candidate	-11732
▁ster	-11733
علق	-11734
▁دولار	-11735
▁corruption	-11736
▁уни	-11737
▁lá	-11738
▁primeiro	-11739
▁γε	-11740
▁därför	-11741
▁جميع	-11742
▁pattern	-11743
▁bý	-11744
вати	-11745
▁brussels	-11746
▁постоя	-11747
ilig	-11748
mus	-11749
şi	-11750
issement	-11751
▁broke	-11752
orde	-11753
▁δύ	-11754
jl	-11755
тар	-11756
▁intelle	-11757
▁broken	-11758
جة	-11759
▁déjà	-11760
emic	-11761
▁dum	-11762
▁來	-11763
กล	-11764
▁processes	-11765
▁ambitious	-11766
ึง	-11767
▁hele	-11768
▁inom	-11769
▁maat	-11770
ighet	-11771
aling	-11772
▁له	-11773
▁kre	-11774
▁أنا	-11775
win	-11776
▁neut	-11777
полнитель	-11778
rito	-11779
ática	-11780
▁incred	-11781
▁dacă	-11782
ycz	-11783
ργασ	-11784
▁والأ	-11785
▁后	-11786
▁multip	-11787
▁radical	-11788
▁вопрос	-11789
vien	-11790
▁beaucoup	-11791
▁gaat	-11792
tees	-11793
нда	-11794
anst	-11795
enced	-11796
hti	-11797
กับ	-11798
▁encontr	-11799
▁klaus	-11800
▁dice	-11801
▁региональ	-11802
down	-11803
▁peng	-11804
▁62	-11805
▁integ	-11806
▁unë	-11807
ában	-11808
тки	-11809
▁eftersom	-11810
40	-11811
τηση	-11812
▁съм	-11813
▁จะ	-11814
tter	-11815
▁consistent	-11816
▁sano	-11817
älle	-11818
▁bend	-11819
▁59	-11820
▁chỉ	-11821
ئي	-11822
ظام	-11823
▁resource	-11824
▁chc	-11825
χε	-11826
▁effe	-11827
▁moon	-11828
όμε	-11829
▁wurden	-11830
▁случае	-11831
▁наи	-11832
▁٧	-11833
eros	-11834
▁identify	-11835
▁120	-11836
gere	-11837
▁offers	-11838
utz	-11839
ache	-11840
▁gia	-11841
▁altri	-11842
▁ไ	-11843
cell	-11844
▁dimens	-11845
rob	-11846
▁采	-11847
▁nós	-11848
▁proceso	-11849
ression	-11850
▁gostaria	-11851
▁understood	-11852
▁конференции	-11853
сона	-11854
ór	-11855
út	-11856
ój	-11857
quoi	-11858
▁rigu	-11859
▁给	-11860
▁использова	-11861
urd	-11862
▁няма	-11863
▁privile	-11864
▁buildings	-11865
▁领	-11866
▁attitude	-11867
θηκε	-11868
▁compensation	-11869
▁život	-11870
▁argu	-11871
ounts	-11872
рок	-11873
ēm	-11874
▁شي	-11875
▁hemos	-11876
▁genuine	-11877
ưa	-11878
▁mitgliedstaaten	-11879
membros	-11880
vil	-11881
▁schon	-11882
▁фон	-11883
▁latter	-11884
▁aids	-11885
▁根	-11886
▁prince	-11887
▁tekn	-11888
▁mold	-11889
▁costa	-11890
ছি	-11891
▁如果	-11892
▁hyväks	-11893
лена	-11894
road	-11895
▁massive	-11896
cere	-11897
▁advance	-11898
▁מת	-11899
sized	-11900
сматрива	-11901
▁destroyed	-11902
▁tree	-11903
сколь	-11904
▁memory	-11905
▁referendum	-11906
ρυ	-11907
▁teraz	-11908
רה	-11909
▁起	-11910
▁detail	-11911
uego	-11912
▁estat	-11913
▁liqu	-11914
▁ended	-11915
▁kuul	-11916
▁rapporteurs	-11917
▁toho	-11918
▁nuestra	-11919
▁secretario	-11920
▁acceptable	-11921
▁usted	-11922
▁represented	-11923
omo	-11924
▁suur	-11925
▁surprise	-11926
▁raport	-11927
bild	-11928
▁discovered	-11929
κει	-11930
▁죋	-11931
erca	-11932
▁ongoing	-11933
▁worst	-11934
▁چه	-11935
נות	-11936
11	-11937
çar	-11938
▁gleich	-11939
▁illust	-11940
▁cũ	-11941
ότητα	-11942
▁apo	-11943
imu	-11944
charge	-11945
▁ответ	-11946
ệc	-11947
▁vienna	-11948
rž	-11949
æng	-11950
▁确	-11951
▁свою	-11952
▁kaikki	-11953
▁там	-11954
hos	-11955
▁già	-11956
▁bych	-11957
▁tard	-11958
▁打	-11959
▁maced	-11960
▁pien	-11961
▁relative	-11962
▁ـ	-11963
▁sebag	-11964
θεση	-11965
▁pourquoi	-11966
iqu	-11967
▁oll	-11968
בה	-11969
▁kai	-11970
▁combating	-11971
▁enormous	-11972
▁모	-11973
ős	-11974
uay	-11975
agt	-11976
▁потреб	-11977
▁obs	-11978
▁voir	-11979
▁leban	-11980
▁lak	-11981
▁reporting	-11982
▁carefully	-11983
▁examples	-11984
▁outros	-11985
▁fonds	-11986
▁від	-11987
fico	-11988
▁obten	-11989
▁预	-11990
▁denn	-11991
اس	-11992
oul	-11993
estas	-11994
▁gente	-11995
▁原	-11996
ningar	-11997
▁certains	-11998
▁nieuwe	-11999
▁заме	-12000
▁结	-12001
▁tay	-12002
▁informal	-12003
▁ω	-12004
▁halua	-12005
▁conten	-12006
▁slight	-12007
▁decre	-12008
▁解	-12009
▁んだ	-12010
▁kinder	-12011
▁disappoint	-12012
▁skills	-12013
▁mina	-12014
▁podpor	-12015
▁bib	-12016
▁자	-12017
▁wear	-12018
▁zon	-12019
▁осуществления	-12020
üd	-12021
▁í	-12022
▁scen	-12023
টি	-12024
ضع	-12025
erde	-12026
▁uses	-12027
▁έχουν	-12028
▁kv	-12029
▁matière	-12030
iere	-12031
▁marsh	-12032
▁手	-12033
▁manten	-12034
▁المنا	-12035
▁مد	-12036
▁deut	-12037
otto	-12038
▁appeared	-12039
rik	-12040
▁mennes	-12041
▁خلال	-12042
äni	-12043
টা	-12044
▁pollution	-12045
▁전	-12046
▁vulnerable	-12047
vey	-12048
ına	-12049
▁gos	-12050
▁hyp	-12051
▁route	-12052
▁næ	-12053
▁מי	-12054
нее	-12055
▁bath	-12056
▁aunque	-12057
urar	-12058
agn	-12059
سبة	-12060
▁founded	-12061
▁paix	-12062
▁hyvin	-12063
▁depois	-12064
lja	-12065
▁colleague	-12066
▁quand	-12067
▁утвер	-12068
▁lø	-12069
▁ア	-12070
▁管	-12071
iekš	-12072
▁yks	-12073
▁دارم	-12074
▁мер	-12075
▁gün	-12076
▁formation	-12077
▁đầu	-12078
may	-12079
▁thu	-12080
▁внимание	-12081
▁riv	-12082
æk	-12083
ản	-12084
▁ある	-12085
▁belief	-12086
▁বি	-12087
icted	-12088
▁explor	-12089
▁zb	-12090
▁unionin	-12091
▁susp	-12092
лку	-12093
▁sini	-12094
ält	-12095
▁tea	-12096
▁keskust	-12097
quier	-12098
▁mí	-12099
▁bị	-12100
▁χρη	-12101
▁concernant	-12102
ificación	-12103
tos	-12104
▁год	-12105
▁сега	-12106
▁carrying	-12107
▁دور	-12108
rak	-12109
▁зако	-12110
erte	-12111
▁совер	-12112
▁kunne	-12113
▁lor	-12114
нут	-12115
▁развива	-12116
▁anna	-12117
▁relief	-12118
▁euros	-12119
▁72	-12120
▁tart	-12121
▁diversity	-12122
-5	-12123
▁personally	-12124
known	-12125
▁63	-12126
▁mů	-12127
▁employees	-12128
▁defe	-12129
izes	-12130
▁rand	-12131
▁emphasis	-12132
▁annivers	-12133
▁concert	-12134
▁πό	-12135
,2	-12136
▁extension	-12137
▁resulting	-12138
▁dio	-12139
▁seeking	-12140
▁square	-12141
▁preci	-12142
▁行动	-12143
▁ана	-12144
سائ	-12145
▁réf	-12146
related	-12147
ībā	-12148
▁stellen	-12149
▁obje	-12150
▁controvers	-12151
▁sper	-12152
▁minden	-12153
sm	-12154
ctual	-12155
▁sama	-12156
▁držav	-12157
▁europejsk	-12158
▁改	-12159
koz	-12160
acji	-12161
▁europeans	-12162
▁copenh	-12163
▁администра	-12164
▁millones	-12165
▁πρόεδρε	-12166
bare	-12167
▁ท	-12168
ãos	-12169
fatt	-12170
▁oficial	-12171
▁заяв	-12172
▁안	-12173
▁historical	-12174
▁jeho	-12175
▁suspend	-12176
▁finanzi	-12177
τικών	-12178
▁quad	-12179
▁europees	-12180
ischer	-12181
▁inne	-12182
▁kül	-12183
▁recorded	-12184
▁הש	-12185
▁repeated	-12186
▁favore	-12187
▁活动	-12188
▁raison	-12189
стави	-12190
▁arbeit	-12191
▁sight	-12192
▁forslag	-12193
agem	-12194
▁项目	-12195
▁мир	-12196
▁parce	-12197
lı	-12198
hoz	-12199
▁zeg	-12200
وات	-12201
▁ezt	-12202
vaj	-12203
omin	-12204
▁worried	-12205
▁fronte	-12206
▁amen	-12207
▁jau	-12208
▁обеспечения	-12209
▁scar	-12210
▁tall	-12211
▁minority	-12212
▁devons	-12213
▁fonction	-12214
▁supre	-12215
قلي	-12216
▁κο	-12217
▁mient	-12218
▁payments	-12219
load	-12220
▁nich	-12221
▁latest	-12222
▁oral	-12223
صد	-12224
▁ресурсов	-12225
▁fraud	-12226
▁mental	-12227
▁sowie	-12228
▁cheap	-12229
yty	-12230
abled	-12231
ettava	-12232
▁الجمعية	-12233
вата	-12234
▁senhora	-12235
▁ങ	-12236
arda	-12237
▁điều	-12238
▁profit	-12239
ständ	-12240
iego	-12241
▁الغ	-12242
▁posible	-12243
▁proposition	-12244
▁questi	-12245
▁payment	-12246
▁económica	-12247
▁функ	-12248
ใจ	-12249
esco	-12250
▁阿	-12251
▁accompan	-12252
ierra	-12253
▁dever	-12254
,6	-12255
▁dici	-12256
tained	-12257
tam	-12258
▁എന	-12259
▁sensitive	-12260
▁vale	-12261
▁机构	-12262
▁проект	-12263
▁whe	-12264
▁direkt	-12265
abon	-12266
▁allows	-12267
▁фран	-12268
▁clothes	-12269
▁eles	-12270
▁udvik	-12271
▁indonesia	-12272
▁belgi	-12273
▁applications	-12274
▁осуществля	-12275
ские	-12276
▁insp	-12277
▁rede	-12278
▁알	-12279
▁gdp	-12280
akh	-12281
▁prí	-12282
▁dove	-12283
▁名	-12284
▁protecting	-12285
▁svet	-12286
forder	-12287
▁việc	-12288
▁carib	-12289
▁intend	-12290
▁derni	-12291
▁mientras	-12292
▁lös	-12293
ρος	-12294
емо	-12295
▁biggest	-12296
▁зада	-12297
ترة	-12298
uw	-12299
euro	-12300
▁supports	-12301
▁продолжа	-12302
▁rejected	-12303
▁då	-12304
üz	-12305
▁koska	-12306
▁realize	-12307
▁szám	-12308
▁ল	-12309
gende	-12310
▁resolve	-12311
bero	-12312
building	-12313
▁рекоменда	-12314
ube	-12315
▁aspe	-12316
▁transf	-12317
▁background	-12318
▁će	-12319
ших	-12320
▁league	-12321
ffent	-12322
▁protected	-12323
▁secré	-12324
وى	-12325
сса	-12326
▁technological	-12327
ρου	-12328
▁建议	-12329
▁verant	-12330
▁habit	-12331
▁seat	-12332
▁السيا	-12333
▁rechts	-12334
ális	-12335
▁vess	-12336
▁mange	-12337
▁القرار	-12338
ká	-12339
▁louis	-12340
▁比	-12341
phere	-12342
▁pergi	-12343
ettu	-12344
▁增	-12345
▁ern	-12346
▁zv	-12347
▁bush	-12348
elfare	-12349
ếu	-12350
▁bliver	-12351
▁urge	-12352
zan	-12353
▁escape	-12354
back	-12355
▁stone	-12356
▁zaman	-12357
šen	-12358
▁efe	-12359
▁repeat	-12360
▁watching	-12361
gens	-12362
▁appreciate	-12363
▁אבל	-12364
▁acordo	-12365
ateur	-12366
▁municip	-12367
▁maritime	-12368
▁sagen	-12369
▁habl	-12370
arang	-12371
▁minha	-12372
aming	-12373
▁bell	-12374
ête	-12375
▁ര	-12376
▁البر	-12377
▁primarily	-12378
▁interpretation	-12379
ād	-12380
ला	-12381
▁ευρώ	-12382
▁ľ	-12383
▁traged	-12384
▁populations	-12385
▁contex	-12386
▁наблю	-12387
цу	-12388
icar	-12389
15	-12390
▁方面	-12391
ने	-12392
▁есть	-12393
▁decent	-12394
▁декабря	-12395
▁scott	-12396
▁ejemplo	-12397
▁lehet	-12398
▁вам	-12399
▁plants	-12400
comed	-12401
▁ولي	-12402
▁способ	-12403
▁facts	-12404
▁人权	-12405
θούν	-12406
▁پس	-12407
▁calm	-12408
hang	-12409
▁comput	-12410
ούμε	-12411
▁swed	-12412
▁azer	-12413
▁pictures	-12414
▁tässä	-12415
htä	-12416
▁boleh	-12417
▁impress	-12418
ورد	-12419
nad	-12420
▁weren	-12421
▁mobile	-12422
▁marco	-12423
▁libre	-12424
▁confirmed	-12425
,4	-12426
▁skall	-12427
▁johnny	-12428
▁없	-12429
lov	-12430
▁уровне	-12431
▁secrétaire	-12432
lang	-12433
▁answers	-12434
▁dank	-12435
입니다	-12436
нер	-12437
▁zelf	-12438
▁enfants	-12439
ôt	-12440
cup	-12441
ùng	-12442
▁ideal	-12443
▁declared	-12444
▁largely	-12445
▁twice	-12446
illing	-12447
تمر	-12448
udar	-12449
▁advert	-12450
ема	-12451
▁náv	-12452
▁welfare	-12453
▁περί	-12454
acter	-12455
جي	-12456
▁restrictions	-12457
▁økonom	-12458
▁housing	-12459
▁proved	-12460
▁trois	-12461
▁legitim	-12462
▁welcomed	-12463
▁וה	-12464
▁след	-12465
לא	-12466
▁ordre	-12467
▁fueron	-12468
▁ولا	-12469
die	-12470
taint	-12471
▁olemme	-12472
▁cậu	-12473
orden	-12474
▁بن	-12475
▁erity	-12476
▁snow	-12477
▁canad	-12478
▁safeguard	-12479
▁però	-12480
▁dutch	-12481
іль	-12482
▁参	-12483
▁football	-12484
▁lon	-12485
▁envis	-12486
▁وف	-12487
▁ون	-12488
▁apresent	-12489
▁meny	-12490
▁utveck	-12491
▁jerusal	-12492
▁grad	-12493
▁coher	-12494
▁وق	-12495
▁мест	-12496
ště	-12497
▁персона	-12498
▁committees	-12499
atta	-12500
▁dobbiamo	-12501
▁pán	-12502
▁hunt	-12503
▁participants	-12504
▁dels	-12505
▁ép	-12506
fs	-12507
μένη	-12508
▁presupu	-12509
▁ultimately	-12510
ിയ	-12511
itan	-12512
▁coven	-12513
▁cũng	-12514
ną	-12515
▁conser	-12516
▁gri	-12517
▁restruct	-12518
▁93	-12519
▁мог	-12520
▁amazing	-12521
χή	-12522
▁наде	-12523
▁בע	-12524
ritt	-12525
▁währ	-12526
▁tony	-12527
▁norte	-12528
▁gez	-12529
туа	-12530
halt	-12531
ος	-12532
▁serge	-12533
▁phenomen	-12534
▁安全	-12535
▁quello	-12536
▁familiar	-12537
íamos	-12538
▁location	-12539
usa	-12540
راف	-12541
▁لح	-12542
ické	-12543
▁grounds	-12544
▁المد	-12545
▁stata	-12546
тно	-12547
▁estaba	-12548
▁charges	-12549
▁discussing	-12550
мати	-12551
▁komprom	-12552
чер	-12553
▁contrat	-12554
▁ακό	-12555
▁handle	-12556
▁mira	-12557
▁quiero	-12558
,3	-12559
▁thinks	-12560
▁relación	-12561
▁سب	-12562
iana	-12563
мі	-12564
▁соедин	-12565
▁corr	-12566
economic	-12567
▁考	-12568
▁jsme	-12569
▁série	-12570
oty	-12571
▁tá	-12572
▁district	-12573
▁seja	-12574
nahmen	-12575
ան	-12576
▁marine	-12577
▁финанси	-12578
▁بح	-12579
▁telah	-12580
อร	-12581
▁neb	-12582
▁occurred	-12583
рти	-12584
ді	-12585
oper	-12586
▁nebo	-12587
▁kontrol	-12588
▁无	-12589
▁διά	-12590
▁memor	-12591
nier	-12592
unda	-12593
▁opposed	-12594
riers	-12595
▁claro	-12596
▁нема	-12597
▁וא	-12598
▁démocrat	-12599
▁voud	-12600
▁trading	-12601
▁思	-12602
abile	-12603
▁haber	-12604
▁במ	-12605
chap	-12606
▁координа	-12607
▁ř	-12608
kans	-12609
▁dealt	-12610
field	-12611
رق	-12612
bro	-12613
,7	-12614
▁functioning	-12615
▁nen	-12616
▁förslag	-12617
▁עם	-12618
ствовать	-12619
oci	-12620
acion	-12621
▁omdat	-12622
▁pig	-12623
jours	-12624
æg	-12625
été	-12626
פר	-12627
uş	-12628
▁trump	-12629
zos	-12630
àng	-12631
▁questão	-12632
▁notamment	-12633
▁٨	-12634
oon	-12635
sman	-12636
maz	-12637
▁conce	-12638
▁לך	-12639
hän	-12640
▁worldwide	-12641
inos	-12642
▁appointed	-12643
ương	-12644
usten	-12645
เด	-12646
▁acquis	-12647
▁proceedings	-12648
ază	-12649
▁resum	-12650
ền	-12651
▁cd	-12652
ikir	-12653
▁doivent	-12654
▁expres	-12655
▁demande	-12656
▁saj	-12657
eling	-12658
▁expansion	-12659
▁més	-12660
vær	-12661
▁fruit	-12662
▁skin	-12663
▁nl	-12664
▁änder	-12665
▁zona	-12666
kow	-12667
τές	-12668
خذ	-12669
level	-12670
▁compliance	-12671
iec	-12672
▁neste	-12673
keiten	-12674
ossa	-12675
▁dej	-12676
▁iyi	-12677
▁shock	-12678
▁программ	-12679
▁anywhere	-12680
ænd	-12681
nyt	-12682
▁alto	-12683
▁portugu	-12684
▁αγ	-12685
▁politicians	-12686
▁mno	-12687
▁considering	-12688
▁187	-12689
▁toujours	-12690
ген	-12691
▁যে	-12692
▁vue	-12693
▁постоян	-12694
▁focused	-12695
▁причи	-12696
▁slovak	-12697
oted	-12698
▁gor	-12699
▁który	-12700
ům	-12701
▁excl	-12702
сен	-12703
▁탐	-12704
iat	-12705
▁effectiveness	-12706
ينا	-12707
▁environnement	-12708
▁perust	-12709
čo	-12710
вър	-12711
ración	-12712
▁guinea	-12713
▁råd	-12714
śli	-12715
ин	-12716
▁olymp	-12717
▁balanced	-12718
▁conferencia	-12719
▁הע	-12720
είς	-12721
▁remaining	-12722
▁année	-12723
▁bana	-12724
īgi	-12725
grund	-12726
▁esf	-12727
▁لن	-12728
▁sektor	-12729
▁mise	-12730
▁bers	-12731
كة	-12732
▁кроме	-12733
▁haiti	-12734
▁jurid	-12735
ommen	-12736
▁ked	-12737
▁links	-12738
▁pendant	-12739
▁cells	-12740
▁desem	-12741
▁examen	-12742
▁magn	-12743
▁directiva	-12744
rest	-12745
лно	-12746
াল	-12747
▁aide	-12748
pal	-12749
▁jih	-12750
▁produkt	-12751
▁bye	-12752
▁vám	-12753
cji	-12754
▁ограни	-12755
igos	-12756
▁slut	-12757
▁imposed	-12758
▁werd	-12759
▁nab	-12760
▁luc	-12761
▁maur	-12762
spe	-12763
▁nød	-12764
▁diseases	-12765
estos	-12766
▁afect	-12767
▁decid	-12768
▁ŝ	-12769
▁bent	-12770
▁tough	-12771
▁tasks	-12772
▁многи	-12773
▁секто	-12774
▁argentina	-12775
▁schn	-12776
▁сти	-12777
▁zer	-12778
μάτων	-12779
▁tarde	-12780
itto	-12781
არ	-12782
▁meat	-12783
▁reasonable	-12784
يدا	-12785
▁очень	-12786
▁escu	-12787
▁lee	-12788
▁treated	-12789
صر	-12790
▁heer	-12791
▁kuten	-12792
طقة	-12793
สิ	-12794
▁これ	-12795
▁усилия	-12796
emin	-12797
▁нару	-12798
▁sales	-12799
▁posso	-12800
личи	-12801
▁electoral	-12802
▁تد	-12803
▁lé	-12804
▁meille	-12805
imana	-12806
ता	-12807
nega	-12808
▁conférence	-12809
▁tes	-12810
▁zug	-12811
▁بالت	-12812
▁bür	-12813
▁хоро	-12814
▁اح	-12815
porte	-12816
▁recognize	-12817
▁nghĩ	-12818
▁mitt	-12819
▁venezu	-12820
▁sake	-12821
▁guarantees	-12822
▁lung	-12823
▁papers	-12824
▁pue	-12825
▁muốn	-12826
▁fie	-12827
▁направи	-12828
iniz	-12829
▁преступ	-12830
έν	-12831
▁期	-12832
▁visto	-12833
нами	-12834
▁уста	-12835
anja	-12836
▁време	-12837
مار	-12838
▁gracias	-12839
▁maß	-12840
▁dz	-12841
west	-12842
▁barb	-12843
▁honourable	-12844
▁stars	-12845
▁стороны	-12846
ാണ	-12847
μή	-12848
▁occupied	-12849
▁bog	-12850
▁exped	-12851
unte	-12852
oden	-12853
▁aconte	-12854
▁докумен	-12855
▁感	-12856
▁daddy	-12857
▁jis	-12858
uries	-12859
14	-12860
▁energet	-12861
▁concur	-12862
▁proven	-12863
emand	-12864
▁sentence	-12865
▁mellan	-12866
▁constructive	-12867
▁före	-12868
ärt	-12869
▁vrij	-12870
▁lado	-12871
▁letters	-12872
▁piano	-12873
▁пос	-12874
▁californ	-12875
▁вме	-12876
▁распро	-12877
▁cooperate	-12878
▁etwas	-12879
▁היא	-12880
▁uniform	-12881
χει	-12882
cito	-12883
▁кто	-12884
низ	-12885
рой	-12886
▁établ	-12887
▁hors	-12888
▁suiv	-12889
▁هاي	-12890
▁člensk	-12891
▁голо	-12892
امية	-12893
▁direitos	-12894
▁daug	-12895
▁hearing	-12896
▁kuitenkin	-12897
▁بها	-12898
▁educa	-12899
▁больше	-12900
▁mora	-12901
▁kvin	-12902
▁μπ	-12903
▁الأمين	-12904
aging	-12905
fast	-12906
▁показа	-12907
▁rightly	-12908
▁limits	-12909
▁options	-12910
▁smaller	-12911
▁ow	-12912
▁ihren	-12913
▁kinds	-12914
æl	-12915
pes	-12916
▁высо	-12917
▁brothers	-12918
▁rib	-12919
▁violation	-12920
iop	-12921
▁file	-12922
ša	-12923
▁attrib	-12924
ött	-12925
äft	-12926
▁vás	-12927
▁правам	-12928
iksi	-12929
teil	-12930
▁directives	-12931
çon	-12932
▁харак	-12933
به	-12934
▁средств	-12935
ünd	-12936
▁tat	-12937
▁ร	-12938
▁وك	-12939
▁ceux	-12940
▁scene	-12941
▁relacion	-12942
▁machen	-12943
▁осо	-12944
▁dispar	-12945
▁telefon	-12946
▁serb	-12947
▁ล	-12948
▁sekarang	-12949
mod	-12950
uvre	-12951
cat	-12952
▁أجل	-12953
illed	-12954
▁секретариа	-12955
▁implications	-12956
کار	-12957
▁ate	-12958
board	-12959
▁poet	-12960
ắn	-12961
▁controls	-12962
▁reaff	-12963
▁refugee	-12964
▁advanced	-12965
▁hos	-12966
cek	-12967
▁showing	-12968
▁ressources	-12969
▁180	-12970
▁assass	-12971
▁ään	-12972
éra	-12973
▁вой	-12974
▁tussen	-12975
▁công	-12976
▁حد	-12977
▁друго	-12978
▁industries	-12979
ujem	-12980
▁enemy	-12981
nat	-12982
lades	-12983
orter	-12984
▁mali	-12985
▁obi	-12986
▁erf	-12987
▁הב	-12988
▁homes	-12989
▁lå	-12990
▁ships	-12991
▁европейски	-12992
▁pau	-12993
▁americans	-12994
iras	-12995
▁substances	-12996
▁конкре	-12997
διο	-12998
▁formed	-12999
čas	-13000
▁praw	-13001
▁však	-13002
مهور	-13003
▁atom	-13004
เก	-13005
▁suic	-13006
,8	-13007
▁asse	-13008
▁negoci	-13009
iry	-13010
▁concerne	-13011
▁informations	-13012
▁histori	-13013
θυ	-13014
ième	-13015
▁interior	-13016
▁reply	-13017
▁suffered	-13018
▁acum	-13019
▁grupos	-13020
▁flexibility	-13021
▁binnen	-13022
▁предлага	-13023
▁conhe	-13024
▁走	-13025
▁иска	-13026
▁мн	-13027
▁thấy	-13028
mär	-13029
▁seemed	-13030
.00	-13031
▁hungary	-13032
▁lieu	-13033
▁alue	-13034
▁surprised	-13035
▁altro	-13036
بغي	-13037
▁明	-13038
يث	-13039
▁alco	-13040
▁nuestro	-13041
òn	-13042
▁preto	-13043
▁style	-13044
▁процеду	-13045
▁admit	-13046
▁mujeres	-13047
יתי	-13048
κι	-13049
▁начи	-13050
▁philosoph	-13051
τον	-13052
ξε	-13053
▁manière	-13054
ieg	-13055
▁replaced	-13056
▁1982	-13057
▁процен	-13058
▁profession	-13059
▁rek	-13060
▁impression	-13061
▁действий	-13062
▁таких	-13063
▁sõ	-13064
giv	-13065
▁区	-13066
▁pala	-13067
ént	-13068
▁权	-13069
▁surface	-13070
▁专	-13071
▁πά	-13072
▁hely	-13073
▁customs	-13074
▁chic	-13075
▁juga	-13076
▁kommissionens	-13077
▁lö	-13078
▁ры	-13079
▁vest	-13080
▁propag	-13081
▁priekš	-13082
usia	-13083
▁者	-13084
yb	-13085
▁헢	-13086
▁sites	-13087
▁прилож	-13088
▁mosc	-13089
▁itt	-13090
atem	-13091
▁οικονομ	-13092
▁dizer	-13093
▁ats	-13094
▁thereby	-13095
ieke	-13096
▁gebru	-13097
olare	-13098
▁73	-13099
رائ	-13100
▁기	-13101
なた	-13102
ffer	-13103
▁اما	-13104
▁festival	-13105
שו	-13106
▁believes	-13107
▁studio	-13108
ступа	-13109
▁swim	-13110
▁segunda	-13111
ција	-13112
border	-13113
▁parlaments	-13114
▁αρ	-13115
▁maail	-13116
▁bai	-13117
▁weil	-13118
▁noss	-13119
▁укреп	-13120
▁treba	-13121
▁τώρα	-13122
пита	-13123
▁ander	-13124
▁sufic	-13125
▁защо	-13126
▁2018	-13127
▁category	-13128
esen	-13129
▁своих	-13130
▁όταν	-13131
▁naše	-13132
ounds	-13133
apar	-13134
▁nii	-13135
će	-13136
▁moj	-13137
şte	-13138
▁δημο	-13139
▁significa	-13140
▁unh	-13141
▁puebl	-13142
▁swedish	-13143
▁diferentes	-13144
▁senza	-13145
▁thành	-13146
▁hanya	-13147
▁zurück	-13148
▁relax	-13149
τσι	-13150
▁ihn	-13151
▁renfor	-13152
▁lain	-13153
▁relatively	-13154
▁коли	-13155
▁flood	-13156
imientos	-13157
mist	-13158
▁pasa	-13159
icional	-13160
▁учи	-13161
chapp	-13162
▁moroc	-13163
▁chile	-13164
▁victim	-13165
▁emple	-13166
▁bless	-13167
▁dj	-13168
▁aplicación	-13169
▁ello	-13170
μαστε	-13171
▁sudah	-13172
▁hiç	-13173
ctic	-13174
▁investments	-13175
▁rice	-13176
▁scot	-13177
▁equally	-13178
▁κρά	-13179
▁semb	-13180
λεί	-13181
▁amendement	-13182
▁savo	-13183
orse	-13184
ží	-13185
▁puh	-13186
▁söy	-13187
väl	-13188
▁zato	-13189
▁представлен	-13190
kia	-13191
кс	-13192
كا	-13193
pē	-13194
▁pool	-13195
▁виде	-13196
▁обо	-13197
▁propuesta	-13198
▁electricity	-13199
▁提出	-13200
▁aceste	-13201
▁فيما	-13202
▁turning	-13203
▁বা	-13204
hop	-13205
лений	-13206
▁markt	-13207
▁würde	-13208
ätta	-13209
▁vita	-13210
aban	-13211
mö	-13212
▁あなた	-13213
▁kart	-13214
ielle	-13215
▁occident	-13216
▁summary	-13217
olic	-13218
▁800	-13219
▁allowing	-13220
vest	-13221
ников	-13222
▁difí	-13223
▁deser	-13224
▁гло	-13225
▁determine	-13226
جم	-13227
▁94	-13228
yti	-13229
▁zimb	-13230
▁interesse	-13231
▁prendre	-13232
▁hiv	-13233
щение	-13234
hle	-13235
חנו	-13236
▁vat	-13237
▁inclusion	-13238
▁ohne	-13239
ication	-13240
▁strike	-13241
▁ford	-13242
aman	-13243
▁duke	-13244
▁1984	-13245
▁시	-13246
akse	-13247
60	-13248
▁ধ	-13249
▁folk	-13250
λος	-13251
▁bå	-13252
▁unha	-13253
▁último	-13254
▁speakers	-13255
▁vietnam	-13256
▁stake	-13257
▁exploitation	-13258
▁circul	-13259
▁camera	-13260
▁esitt	-13261
▁yan	-13262
▁74	-13263
▁plaats	-13264
▁নি	-13265
▁imperial	-13266
▁humans	-13267
▁ഇ	-13268
ização	-13269
ieden	-13270
ാന	-13271
▁jeden	-13272
ifi	-13273
gru	-13274
▁sigu	-13275
▁instruct	-13276
▁取	-13277
kaz	-13278
▁спа	-13279
▁menjadi	-13280
▁أخرى	-13281
řed	-13282
▁話	-13283
▁kér	-13284
▁everywhere	-13285
▁intelligence	-13286
▁esse	-13287
шин	-13288
yttä	-13289
▁medicine	-13290
▁weit	-13291
▁hasn	-13292
ommod	-13293
▁tests	-13294
▁zwei	-13295
اح	-13296
▁sebagai	-13297
▁sätt	-13298
mid	-13299
abilities	-13300
علوم	-13301
зя	-13302
▁сен	-13303
ários	-13304
▁eerste	-13305
taj	-13306
▁colum	-13307
▁反	-13308
▁lep	-13309
▁один	-13310
▁67	-13311
▁diritti	-13312
▁holy	-13313
place	-13314
▁യ	-13315
▁إذا	-13316
▁chan	-13317
uran	-13318
▁echter	-13319
▁sommes	-13320
▁pois	-13321
▁resolu	-13322
▁accommod	-13323
roj	-13324
▁stronger	-13325
▁técn	-13326
▁observer	-13327
▁çal	-13328
▁suite	-13329
▁средства	-13330
▁σχετικά	-13331
▁państ	-13332
▁courts	-13333
▁být	-13334
▁kysym	-13335
erea	-13336
▁facilit	-13337
▁california	-13338
▁wirk	-13339
▁length	-13340
▁ήθε	-13341
▁stable	-13342
▁oleh	-13343
▁sust	-13344
▁zimbab	-13345
▁organización	-13346
▁deben	-13347
▁pouvoir	-13348
ленных	-13349
▁hardly	-13350
▁oggi	-13351
esar	-13352
▁selon	-13353
▁forgive	-13354
ksam	-13355
▁оружи	-13356
otic	-13357
kab	-13358
▁ganz	-13359
▁saav	-13360
▁peque	-13361
▁healthy	-13362
▁88	-13363
▁governing	-13364
yak	-13365
▁кой	-13366
kun	-13367
▁besides	-13368
kai	-13369
▁citoy	-13370
▁alguns	-13371
▁ellen	-13372
commun	-13373
▁accompl	-13374
ciación	-13375
▁mogu	-13376
▁toto	-13377
ساعدة	-13378
▁subsidiar	-13379
▁prize	-13380
rates	-13381
▁πραγμα	-13382
vek	-13383
cken	-13384
▁económico	-13385
▁extreme	-13386
ремен	-13387
▁siamo	-13388
iin	-13389
▁gond	-13390
▁histó	-13391
▁úgy	-13392
▁группа	-13393
▁vastu	-13394
▁тому	-13395
ilipp	-13396
▁あり	-13397
▁európs	-13398
▁الوط	-13399
▁pén	-13400
▁اع	-13401
▁пі	-13402
▁paragraphs	-13403
ọi	-13404
▁siem	-13405
▁konfl	-13406
▁أكثر	-13407
יק	-13408
nin	-13409
▁když	-13410
▁player	-13411
▁bras	-13412
ahren	-13413
ują	-13414
▁χα	-13415
▁tight	-13416
▁geht	-13417
▁зо	-13418
▁examine	-13419
bage	-13420
▁knock	-13421
▁законо	-13422
▁틔	-13423
▁เธอ	-13424
▁vorrei	-13425
▁czł	-13426
▁풱	-13427
▁exemple	-13428
▁margin	-13429
рно	-13430
zoek	-13431
▁bë	-13432
▁komen	-13433
▁socio	-13434
▁inflation	-13435
▁jäsenvaltio	-13436
▁ellos	-13437
▁sollte	-13438
▁ensemble	-13439
öß	-13440
▁utilis	-13441
▁tenemos	-13442
urb	-13443
▁τό	-13444
▁când	-13445
▁jelent	-13446
▁spørgsmål	-13447
īg	-13448
▁stations	-13449
lais	-13450
▁user	-13451
ثي	-13452
▁mostly	-13453
▁covenant	-13454
▁გ	-13455
▁ers	-13456
▁enk	-13457
▁mare	-13458
▁kend	-13459
ansa	-13460
▁banglades	-13461
▁sociales	-13462
نى	-13463
▁ใน	-13464
▁puheen	-13465
iring	-13466
ské	-13467
いて	-13468
pin	-13469
▁jika	-13470
▁sut	-13471
▁nouveau	-13472
▁议	-13473
▁ange	-13474
كي	-13475
▁jar	-13476
▁estava	-13477
▁доклада	-13478
vs	-13479
▁senior	-13480
цы	-13481
▁scientists	-13482
▁巴	-13483
▁кор	-13484
▁amé	-13485
anno	-13486
кси	-13487
▁bild	-13488
σαν	-13489
nist	-13490
▁jerusalem	-13491
etty	-13492
▁mala	-13493
▁shape	-13494
하는	-13495
punkt	-13496
▁ax	-13497
σια	-13498
▁τρο	-13499
▁использо	-13500
▁obama	-13501
chn	-13502
τους	-13503
▁spiel	-13504
▁alger	-13505
fois	-13506
▁све	-13507
▁likes	-13508
▁encouraging	-13509
▁ří	-13510
▁elimination	-13511
▁région	-13512
liv	-13513
ärder	-13514
▁생	-13515
▁hens	-13516
▁empire	-13517
▁هيچ	-13518
mant	-13519
عضاء	-13520
ены	-13521
▁morgen	-13522
▁dapat	-13523
itus	-13524
▁tapa	-13525
▁lots	-13526
▁служ	-13527
▁donne	-13528
▁nigeria	-13529
▁двух	-13530
▁benefici	-13531
▁καν	-13532
▁πρά	-13533
bling	-13534
▁assume	-13535
ρόν	-13536
لت	-13537
▁unders	-13538
▁どう	-13539
iseksi	-13540
lep	-13541
▁unionen	-13542
▁heel	-13543
▁muslim	-13544
▁uden	-13545
▁windows	-13546
вите	-13547
▁컒	-13548
▁endors	-13549
เธอ	-13550
جراء	-13551
šč	-13552
▁delight	-13553
ály	-13554
nosť	-13555
▁enforcement	-13556
▁ấy	-13557
правитель	-13558
ział	-13559
të	-13560
▁palestine	-13561
tering	-13562
▁61	-13563
nsk	-13564
▁jusqu	-13565
▁originally	-13566
▁госпо	-13567
▁organizaciones	-13568
▁정	-13569
▁ngày	-13570
▁cole	-13571
▁lõ	-13572
▁heading	-13573
ikas	-13574
▁erw	-13575
▁программа	-13576
ίκ	-13577
▁sugar	-13578
▁aumento	-13579
ούς	-13580
▁ходе	-13581
▁совеща	-13582
▁techniques	-13583
כן	-13584
▁santa	-13585
▁perpet	-13586
,9	-13587
peč	-13588
▁ядер	-13589
▁equival	-13590
▁πρώ	-13591
▁вос	-13592
▁запа	-13593
▁مرد	-13594
▁engaged	-13595
▁recru	-13596
เลย	-13597
▁baz	-13598
▁sports	-13599
▁quindi	-13600
ثير	-13601
▁kilomet	-13602
anas	-13603
тре	-13604
▁viele	-13605
نه	-13606
▁listening	-13607
▁持	-13608
▁zero	-13609
▁правительство	-13610
▁vs	-13611
▁利	-13612
▁大会	-13613
فع	-13614
▁reflected	-13615
▁mirë	-13616
▁exists	-13617
▁ră	-13618
▁colonial	-13619
▁definitely	-13620
▁היה	-13621
▁١٩٩٤	-13622
▁empt	-13623
▁nech	-13624
▁begr	-13625
night	-13626
▁содействи	-13627
ющий	-13628
ierte	-13629
▁svoj	-13630
▁lake	-13631
▁دوست	-13632
▁indis	-13633
alta	-13634
wy	-13635
▁欧	-13636
▁ogni	-13637
▁péri	-13638
▁perfectly	-13639
чь	-13640
▁對	-13641
▁92	-13642
▁研	-13643
▁меро	-13644
▁scheme	-13645
▁٩	-13646
quel	-13647
ям	-13648
▁此	-13649
▁parlamentu	-13650
itud	-13651
шего	-13652
▁쓪	-13653
isering	-13654
ties	-13655
icken	-13656
▁حقوق	-13657
▁技	-13658
▁tet	-13659
▁detention	-13660
▁renewable	-13661
▁всеми	-13662
▁faster	-13663
▁bukan	-13664
▁expensive	-13665
équ	-13666
▁zosta	-13667
▁minu	-13668
▁especialmente	-13669
▁меха	-13670
▁players	-13671
▁мероприя	-13672
▁depos	-13673
▁bot	-13674
wert	-13675
▁cc	-13676
▁portuguese	-13677
▁apolog	-13678
▁них	-13679
▁broadcast	-13680
▁jadi	-13681
▁publication	-13682
▁gift	-13683
▁înt	-13684
▁desenvolvimento	-13685
▁185	-13686
▁зем	-13687
istics	-13688
▁práct	-13689
▁reconstruction	-13690
▁ო	-13691
▁ഞ	-13692
isz	-13693
▁particulier	-13694
lagen	-13695
▁buvo	-13696
▁chosen	-13697
льной	-13698
ئية	-13699
▁mest	-13700
▁дей	-13701
▁해	-13702
şti	-13703
▁הם	-13704
▁thirty	-13705
jän	-13706
▁कर	-13707
▁proof	-13708
▁widely	-13709
▁kval	-13710
▁gł	-13711
▁egg	-13712
äch	-13713
▁forever	-13714
▁enhance	-13715
রা	-13716
▁fondo	-13717
כו	-13718
ками	-13719
▁жа	-13720
▁apartment	-13721
gesch	-13722
▁accused	-13723
▁scand	-13724
▁1950	-13725
▁говорит	-13726
nor	-13727
onio	-13728
▁plusieurs	-13729
▁ontwikkel	-13730
▁invas	-13731
irement	-13732
hend	-13733
vrouw	-13734
engers	-13735
▁applies	-13736
ском	-13737
▁taxes	-13738
▁proportion	-13739
▁olyan	-13740
▁significantly	-13741
▁guerre	-13742
ותר	-13743
лем	-13744
▁lunch	-13745
нем	-13746
▁estou	-13747
▁ampl	-13748
▁weet	-13749
▁rit	-13750
▁rip	-13751
▁servi	-13752
▁ذات	-13753
▁fung	-13754
▁saa	-13755
ữa	-13756
isp	-13757
ържа	-13758
▁kansala	-13759
رخ	-13760
мь	-13761
▁blame	-13762
▁nouvelle	-13763
ודע	-13764
▁otáz	-13765
▁περισ	-13766
▁ciudadanos	-13767
▁surely	-13768
▁تص	-13769
▁глоба	-13770
غير	-13771
▁persone	-13772
مبر	-13773
▁ανθ	-13774
ادي	-13775
▁polish	-13776
▁pursuant	-13777
▁में	-13778
▁决定	-13779
vē	-13780
▁operate	-13781
▁gjith	-13782
жно	-13783
▁않	-13784
bly	-13785
▁الأمن	-13786
▁kosten	-13787
uchen	-13788
▁také	-13789
vare	-13790
▁volume	-13791
ahan	-13792
сут	-13793
äd	-13794
▁suddenly	-13795
ями	-13796
الت	-13797
▁注	-13798
▁între	-13799
prim	-13800
▁тра	-13801
▁yard	-13802
aded	-13803
arsi	-13804
▁examin	-13805
▁科	-13806
▁مجلس	-13807
▁eens	-13808
▁inhab	-13809
▁garden	-13810
▁gibi	-13811
▁тако	-13812
▁そう	-13813
▁opera	-13814
▁reconcil	-13815
▁verdade	-13816
▁vì	-13817
▁falls	-13818
▁keď	-13819
▁models	-13820
▁estimates	-13821
▁luft	-13822
▁saved	-13823
▁harus	-13824
▁ką	-13825
▁sondern	-13826
amas	-13827
▁لكن	-13828
▁guil	-13829
-200	-13830
▁lob	-13831
▁существу	-13832
▁لع	-13833
▁于	-13834
geben	-13835
ступи	-13836
▁cittad	-13837
ihen	-13838
ديدة	-13839
illes	-13840
▁turns	-13841
▁magazine	-13842
▁rub	-13843
▁isti	-13844
▁کم	-13845
گر	-13846
▁features	-13847
▁library	-13848
▁הר	-13849
▁speaker	-13850
farë	-13851
▁sollten	-13852
▁problèmes	-13853
▁사람	-13854
licher	-13855
▁diplomatic	-13856
fach	-13857
▁weiß	-13858
zig	-13859
▁sovereignty	-13860
rett	-13861
▁frage	-13862
▁reaction	-13863
▁onun	-13864
▁flying	-13865
orient	-13866
rt	-13867
▁เพ	-13868
▁colombia	-13869
▁svoje	-13870
iben	-13871
esser	-13872
ście	-13873
ják	-13874
▁cél	-13875
▁historia	-13876
▁cambod	-13877
▁ie	-13878
计划	-13879
▁cresc	-13880
▁observers	-13881
حا	-13882
▁casos	-13883
▁exhib	-13884
▁err	-13885
▁ráp	-13886
chu	-13887
▁brings	-13888
▁حتى	-13889
▁زند	-13890
▁images	-13891
▁hơn	-13892
▁immigrants	-13893
▁dua	-13894
▁penso	-13895
▁ห	-13896
▁hospod	-13897
▁procure	-13898
▁amounts	-13899
øj	-13900
▁ministro	-13901
while	-13902
áva	-13903
▁69	-13904
▁合作	-13905
▁אם	-13906
▁substantive	-13907
▁discharge	-13908
▁sulle	-13909
들이	-13910
▁peuvent	-13911
elem	-13912
ël	-13913
immer	-13914
▁населения	-13915
eding	-13916
urre	-13917
▁leaves	-13918
zent	-13919
▁jedoch	-13920
zenie	-13921
▁bottom	-13922
īj	-13923
▁patent	-13924
▁návr	-13925
▁observations	-13926
▁сви	-13927
▁mettre	-13928
▁странах	-13929
▁bew	-13930
▁taught	-13931
▁mevrouw	-13932
▁estoy	-13933
▁ситуа	-13934
▁marché	-13935
لاق	-13936
▁seulement	-13937
venth	-13938
▁valid	-13939
▁eje	-13940
▁têm	-13941
▁кру	-13942
▁nhà	-13943
▁79	-13944
▁domaine	-13945
▁resulted	-13946
▁revision	-13947
illeurs	-13948
▁basically	-13949
▁jordan	-13950
▁офи	-13951
▁alia	-13952
▁здра	-13953
▁commander	-13954
▁vak	-13955
▁étaient	-13956
▁obstacles	-13957
▁ries	-13958
▁lovely	-13959
▁mång	-13960
▁quarter	-13961
▁واق	-13962
▁повестки	-13963
etet	-13964
▁anniversary	-13965
▁encouraged	-13966
eller	-13967
▁valuable	-13968
▁δικαι	-13969
▁pardon	-13970
ių	-13971
▁twee	-13972
fund	-13973
▁unice	-13974
أة	-13975
▁ordinary	-13976
▁сотрудничества	-13977
rir	-13978
γη	-13979
▁podría	-13980
▁arrive	-13981
▁السيد	-13982
неш	-13983
ouwen	-13984
▁αφ	-13985
▁ميک	-13986
▁amélior	-13987
▁saber	-13988
▁avez	-13989
izo	-13990
▁horiz	-13991
ämp	-13992
uo	-13993
▁cie	-13994
▁توي	-13995
icate	-13996
▁تلك	-13997
דו	-13998
ijk	-13999
▁difícil	-14000
нам	-14001
▁evil	-14002
▁pont	-14003
▁procent	-14004
▁ub	-14005
▁fulfil	-14006
vej	-14007
▁занима	-14008
▁alcan	-14009
▁detto	-14010
bean	-14011
try	-14012
▁medida	-14013
områ	-14014
▁alo	-14015
▁neighb	-14016
▁preparing	-14017
▁nõ	-14018
▁tại	-14019
▁artist	-14020
▁bli	-14021
▁προς	-14022
жет	-14023
▁macro	-14024
▁aika	-14025
ların	-14026
▁owners	-14027
▁ī	-14028
тем	-14029
▁outra	-14030
atique	-14031
ának	-14032
▁بما	-14033
▁ancient	-14034
▁въз	-14035
tainty	-14036
▁ross	-14037
▁distance	-14038
cier	-14039
▁يكون	-14040
▁学	-14041
▁sessions	-14042
iesz	-14043
▁innovative	-14044
▁民	-14045
▁comunidad	-14046
▁dic	-14047
ху	-14048
▁involve	-14049
▁carol	-14050
cession	-14051
▁wider	-14052
▁juríd	-14053
ุด	-14054
ashion	-14055
ules	-14056
ذار	-14057
▁opinions	-14058
▁страте	-14059
▁повы	-14060
▁พวก	-14061
▁provoc	-14062
▁inspir	-14063
▁vehicle	-14064
▁sviluppo	-14065
▁πισ	-14066
▁بع	-14067
ุก	-14068
▁چی	-14069
▁kör	-14070
▁guide	-14071
kus	-14072
-9	-14073
▁leon	-14074
▁окру	-14075
▁réun	-14076
▁tank	-14077
uman	-14078
▁sas	-14079
лежа	-14080
oco	-14081
▁вели	-14082
yorsun	-14083
▁liked	-14084
stel	-14085
▁عم	-14086
▁corner	-14087
▁ży	-14088
frica	-14089
▁ami	-14090
▁треба	-14091
ющего	-14092
واد	-14093
▁eivät	-14094
ριν	-14095
▁improvements	-14096
▁comercial	-14097
▁fråga	-14098
▁מש	-14099
▁vielä	-14100
▁voudrais	-14101
зывает	-14102
▁recognise	-14103
▁daarom	-14104
شطة	-14105
▁principio	-14106
▁novo	-14107
▁deputado	-14108
▁flights	-14109
▁neighbor	-14110
voli	-14111
▁успе	-14112
jší	-14113
ências	-14114
▁legitimate	-14115
▁زي	-14116
▁preparatory	-14117
▁lagi	-14118
mä	-14119
▁ense	-14120
▁彼女	-14121
▁angel	-14122
▁societies	-14123
cke	-14124
▁къ	-14125
stvo	-14126
▁subsequently	-14127
▁dzi	-14128
otts	-14129
ático	-14130
▁stras	-14131
▁یه	-14132
▁auth	-14133
▁spole	-14134
▁meie	-14135
▁joseph	-14136
▁passengers	-14137
▁ngo	-14138
เค	-14139
zna	-14140
▁mane	-14141
াম	-14142
▁cuestiones	-14143
▁eli	-14144
▁пись	-14145
▁нео	-14146
лением	-14147
▁persona	-14148
▁acab	-14149
▁расши	-14150
▁unhcr	-14151
▁spoken	-14152
▁datab	-14153
▁kde	-14154
▁conna	-14155
▁problème	-14156
bito	-14157
▁完	-14158
дат	-14159
▁руковод	-14160
▁drawing	-14161
▁primo	-14162
▁partido	-14163
atura	-14164
edia	-14165
▁sł	-14166
▁политики	-14167
▁tý	-14168
▁aici	-14169
▁musical	-14170
▁поль	-14171
▁minä	-14172
чной	-14173
▁mari	-14174
▁ퟷ	-14175
▁occupation	-14176
▁verdad	-14177
▁spons	-14178
▁쫇	-14179
▁benim	-14180
ások	-14181
▁overcome	-14182
▁ocup	-14183
▁86	-14184
▁gay	-14185
▁qualquer	-14186
▁гер	-14187
▁entra	-14188
▁luk	-14189
нес	-14190
unde	-14191
▁bitch	-14192
ēd	-14193
▁seguir	-14194
▁viz	-14195
уча	-14196
▁тебя	-14197
там	-14198
щая	-14199
▁妇	-14200
▁displaced	-14201
▁uncer	-14202
▁為	-14203
cus	-14204
يج	-14205
▁experienced	-14206
eret	-14207
▁١٩	-14208
▁moh	-14209
oko	-14210
▁什麼	-14211
▁parall	-14212
▁установ	-14213
▁十	-14214
▁quien	-14215
▁walking	-14216
ichen	-14217
▁материа	-14218
▁οποίο	-14219
دارة	-14220
▁neu	-14221
▁影	-14222
▁philipp	-14223
▁البي	-14224
▁收	-14225
▁lying	-14226
▁depends	-14227
▁komissio	-14228
▁shum	-14229
вай	-14230
ições	-14231
▁напри	-14232
▁tento	-14233
▁seb	-14234
▁engagement	-14235
▁sets	-14236
etz	-14237
erta	-14238
enger	-14239
▁μία	-14240
▁protección	-14241
▁consequently	-14242
▁regi	-14243
▁refused	-14244
▁binding	-14245
▁tells	-14246
▁mulher	-14247
▁distingu	-14248
▁وأن	-14249
▁hog	-14250
▁elev	-14251
▁seit	-14252
ourg	-14253
▁ทํา	-14254
ünü	-14255
▁struggle	-14256
▁πλη	-14257
▁jahren	-14258
▁evol	-14259
▁ombud	-14260
▁répu	-14261
▁מס	-14262
▁recher	-14263
uat	-14264
▁stal	-14265
▁چيزي	-14266
▁πιο	-14267
มาก	-14268
fond	-14269
iez	-14270
▁wearing	-14271
icious	-14272
▁observed	-14273
▁συζ	-14274
čių	-14275
باد	-14276
▁bé	-14277
▁duties	-14278
▁rational	-14279
▁کني	-14280
▁每	-14281
▁sopim	-14282
▁nossa	-14283
▁sought	-14284
▁εκεί	-14285
▁части	-14286
▁bedeut	-14287
baar	-14288
umas	-14289
▁изра	-14290
▁живо	-14291
▁bahwa	-14292
▁jum	-14293
▁newspaper	-14294
▁regulatory	-14295
▁inequ	-14296
▁bou	-14297
▁nerv	-14298
▁entsche	-14299
▁behö	-14300
▁стратеги	-14301
▁forbind	-14302
ása	-14303
льного	-14304
▁ambassador	-14305
▁ég	-14306
▁啊	-14307
▁tibet	-14308
▁confident	-14309
▁behavi	-14310
leri	-14311
▁sah	-14312
▁откры	-14313
вал	-14314
▁prend	-14315
▁prel	-14316
δικ	-14317
▁ordered	-14318
dag	-14319
▁hoje	-14320
ěd	-14321
▁uud	-14322
alous	-14323
▁vier	-14324
▁ridic	-14325
▁أنت	-14326
▁copenhagen	-14327
ním	-14328
▁эле	-14329
▁valor	-14330
▁savings	-14331
ộc	-14332
orie	-14333
▁conventions	-14334
▁repa	-14335
▁flexible	-14336
ėti	-14337
ский	-14338
しい	-14339
19	-14340
▁82	-14341
▁streets	-14342
بع	-14343
▁stöd	-14344
▁mogelijk	-14345
ამ	-14346
▁hacia	-14347
▁النا	-14348
▁nya	-14349
▁poved	-14350
▁всего	-14351
▁tudo	-14352
▁jin	-14353
sto	-14354
нди	-14355
acağ	-14356
▁700	-14357
▁ξε	-14358
מת	-14359
▁virgin	-14360
▁normas	-14361
▁спра	-14362
ienia	-14363
▁άν	-14364
áci	-14365
nim	-14366
▁bother	-14367
▁стан	-14368
▁persist	-14369
▁hungry	-14370
τερ	-14371
▁políticos	-14372
▁mobility	-14373
▁wars	-14374
▁victory	-14375
▁unters	-14376
▁remark	-14377
▁другие	-14378
▁dna	-14379
wel	-14380
▁universe	-14381
지만	-14382
واق	-14383
ходя	-14384
ξει	-14385
سته	-14386
▁azerba	-14387
älla	-14388
▁rien	-14389
▁zones	-14390
тных	-14391
▁nelle	-14392
▁yhteis	-14393
чных	-14394
▁resultado	-14395
80	-14396
▁coord	-14397
▁indire	-14398
ogu	-14399
kir	-14400
▁sade	-14401
πι	-14402
▁remove	-14403
▁rehabil	-14404
имо	-14405
▁שלי	-14406
▁뫏	-14407
ége	-14408
▁dignity	-14409
▁público	-14410
▁rio	-14411
▁поддержа	-14412
▁1979	-14413
▁programma	-14414
▁eating	-14415
iendo	-14416
▁própri	-14417
▁szeret	-14418
für	-14419
ład	-14420
amentos	-14421
▁może	-14422
ujú	-14423
▁wichtig	-14424
▁tyl	-14425
▁agrade	-14426
▁184	-14427
▁innocent	-14428
▁aleman	-14429
▁castle	-14430
šte	-14431
▁diverse	-14432
стер	-14433
פה	-14434
▁sujet	-14435
▁стру	-14436
▁bereits	-14437
▁الأط	-14438
ρών	-14439
▁malo	-14440
▁благода	-14441
inių	-14442
▁crise	-14443
▁hyd	-14444
াই	-14445
▁unicef	-14446
▁ong	-14447
▁rôle	-14448
вый	-14449
▁paying	-14450
ót	-14451
ahu	-14452
▁patr	-14453
vano	-14454
▁potre	-14455
▁directed	-14456
▁neue	-14457
فعل	-14458
▁atau	-14459
lá	-14460
érer	-14461
▁kõik	-14462
مين	-14463
بات	-14464
▁magic	-14465
▁встре	-14466
ienne	-14467
راض	-14468
▁bangladesh	-14469
▁esfuer	-14470
▁caribbean	-14471
urile	-14472
ложен	-14473
شته	-14474
▁barcel	-14475
bres	-14476
فريق	-14477
ichte	-14478
▁emerging	-14479
▁должен	-14480
▁αυτά	-14481
ρον	-14482
▁игра	-14483
▁attempts	-14484
▁зде	-14485
▁solar	-14486
▁contributed	-14487
▁よう	-14488
▁úr	-14489
φέ	-14490
▁shift	-14491
▁cerca	-14492
uga	-14493
▁haw	-14494
▁الإنسان	-14495
▁connected	-14496
чает	-14497
avad	-14498
事会	-14499
▁assure	-14500
него	-14501
нологи	-14502
▁公约	-14503
ắt	-14504
emu	-14505
ții	-14506
شي	-14507
▁anticip	-14508
▁いい	-14509
▁permett	-14510
тых	-14511
▁consecu	-14512
that	-14513
▁وح	-14514
▁mate	-14515
या	-14516
▁coup	-14517
asters	-14518
▁processing	-14519
▁fixed	-14520
▁تأ	-14521
▁ί	-14522
▁losing	-14523
стойчи	-14524
▁manager	-14525
▁enterprise	-14526
▁вра	-14527
▁syria	-14528
▁lisä	-14529
▁monopol	-14530
▁kick	-14531
▁leads	-14532
▁συμφων	-14533
▁arbej	-14534
▁الثاني	-14535
▁mình	-14536
چه	-14537
▁ies	-14538
▁bajo	-14539
undi	-14540
ätte	-14541
▁妇女	-14542
▁olduğunu	-14543
jut	-14544
▁χω	-14545
anne	-14546
стан	-14547
▁acknowled	-14548
uč	-14549
▁realmente	-14550
▁gul	-14551
▁sammen	-14552
▁haluan	-14553
ही	-14554
lamentet	-14555
▁посколь	-14556
راد	-14557
ánd	-14558
▁hence	-14559
над	-14560
▁thro	-14561
▁unserer	-14562
ainen	-14563
▁76	-14564
▁competence	-14565
▁rough	-14566
▁共	-14567
▁persu	-14568
▁dil	-14569
ों	-14570
▁механиз	-14571
▁캪	-14572
▁inglés	-14573
▁belgium	-14574
▁предпо	-14575
▁décision	-14576
▁comply	-14577
▁byl	-14578
ستم	-14579
▁musíme	-14580
▁מע	-14581
▁которой	-14582
isiä	-14583
▁contempor	-14584
▁بأ	-14585
▁apie	-14586
▁dazu	-14587
▁поскольку	-14588
active	-14589
▁specialized	-14590
▁چرا	-14591
▁immun	-14592
ūt	-14593
گي	-14594
▁entend	-14595
bc	-14596
▁глав	-14597
▁historic	-14598
▁јас	-14599
▁explained	-14600
▁siempre	-14601
▁соб	-14602
▁مار	-14603
▁appointment	-14604
▁själ	-14605
▁inner	-14606
anut	-14607
▁deeply	-14608
▁visited	-14609
▁设	-14610
vänd	-14611
▁каж	-14612
▁gap	-14613
▁secondo	-14614
▁lith	-14615
petto	-14616
▁wereld	-14617
itual	-14618
▁inden	-14619
▁lever	-14620
▁maintained	-14621
▁rising	-14622
▁উ	-14623
▁struktur	-14624
▁jurisdiction	-14625
▁dying	-14626
▁conservation	-14627
▁violent	-14628
طار	-14629
▁divor	-14630
länder	-14631
4-0	-14632
▁لد	-14633
▁statute	-14634
▁astron	-14635
▁betyd	-14636
alar	-14637
▁angry	-14638
▁торгов	-14639
ју	-14640
▁inev	-14641
▁σκ	-14642
▁kontroll	-14643
unes	-14644
ốc	-14645
▁未	-14646
▁decisión	-14647
▁טוב	-14648
▁ока	-14649
▁pursue	-14650
hto	-14651
kur	-14652
▁cen	-14653
▁moja	-14654
▁carl	-14655
▁všech	-14656
▁আমি	-14657
▁доста	-14658
▁armas	-14659
▁чис	-14660
▁sov	-14661
▁обсу	-14662
▁через	-14663
▁shi	-14664
▁което	-14665
▁usual	-14666
стин	-14667
▁kiel	-14668
▁guatem	-14669
▁lift	-14670
طلب	-14671
ổi	-14672
▁timp	-14673
pis	-14674
▁perg	-14675
▁sull	-14676
▁办	-14677
oles	-14678
▁认为	-14679
▁guilty	-14680
▁devrait	-14681
▁здесь	-14682
▁región	-14683
▁警	-14684
▁tuttavia	-14685
мест	-14686
▁satellite	-14687
▁province	-14688
▁вза	-14689
actions	-14690
▁escap	-14691
▁denmark	-14692
▁gust	-14693
onn	-14694
тен	-14695
▁отве	-14696
▁lawyer	-14697
▁συγ	-14698
▁unity	-14699
▁χώ	-14700
▁çfarë	-14701
чного	-14702
▁autoridades	-14703
ρθ	-14704
▁ip	-14705
▁còn	-14706
رية	-14707
▁volunte	-14708
▁éch	-14709
▁negotiating	-14710
▁reserve	-14711
▁иде	-14712
▁leb	-14713
▁сей	-14714
olar	-14715
قديم	-14716
▁meses	-14717
▁governor	-14718
ificar	-14719
▁kwest	-14720
▁direktiv	-14721
▁dry	-14722
▁penalty	-14723
▁processus	-14724
▁gemeens	-14725
юз	-14726
▁demonstrated	-14727
▁emphasise	-14728
jets	-14729
ifik	-14730
▁υπό	-14731
▁incluso	-14732
▁anser	-14733
▁mana	-14734
ljen	-14735
нен	-14736
immt	-14737
▁birthday	-14738
▁跟	-14739
ināt	-14740
▁αξ	-14741
ële	-14742
▁kép	-14743
stairs	-14744
▁shame	-14745
▁указа	-14746
▁stands	-14747
rai	-14748
▁giờ	-14749
они	-14750
▁efica	-14751
▁84	-14752
pert	-14753
▁쏇	-14754
κρα	-14755
χν	-14756
▁nogle	-14757
▁läh	-14758
▁actively	-14759
izioni	-14760
▁globalisation	-14761
زا	-14762
سائل	-14763
▁законода	-14764
essen	-14765
▁rédu	-14766
illi	-14767
▁clim	-14768
▁combined	-14769
▁разме	-14770
▁hip	-14771
stī	-14772
▁ป	-14773
▁מו	-14774
▁absolute	-14775
▁fern	-14776
▁ні	-14777
▁مم	-14778
▁créd	-14779
▁规定	-14780
▁mathem	-14781
▁criticism	-14782
▁satisfaction	-14783
▁вопросы	-14784
▁belangrijk	-14785
▁sådan	-14786
▁mondo	-14787
▁sikker	-14788
▁novi	-14789
▁sequ	-14790
▁fá	-14791
▁agents	-14792
▁blive	-14793
▁posibil	-14794
ají	-14795
▁ευρώπη	-14796
▁encu	-14797
▁augment	-14798
ivan	-14799
▁verein	-14800
▁мас	-14801
▁проводи	-14802
дования	-14803
▁jste	-14804
гули	-14805
umo	-14806
▁必须	-14807
posta	-14808
▁compat	-14809
▁alcohol	-14810
▁儿	-14811
▁三	-14812
▁singap	-14813
▁التح	-14814
▁humanity	-14815
▁lebanon	-14816
▁initially	-14817
▁journey	-14818
φε	-14819
▁herself	-14820
▁entreprene	-14821
σότε	-14822
▁debería	-14823
ieu	-14824
▁zimbabwe	-14825
▁89	-14826
▁cinco	-14827
▁biennium	-14828
لق	-14829
▁eik	-14830
▁mung	-14831
ionali	-14832
▁empty	-14833
▁señora	-14834
▁бъде	-14835
وري	-14836
▁veget	-14837
▁angola	-14838
▁wedding	-14839
▁ήθελα	-14840
▁tylko	-14841
api	-14842
šanu	-14843
เจ	-14844
▁sär	-14845
▁superior	-14846
▁вопроса	-14847
onces	-14848
▁tote	-14849
▁trên	-14850
▁1967	-14851
▁重要	-14852
▁sri	-14853
▁souha	-14854
▁finden	-14855
▁περισσότε	-14856
▁性	-14857
▁kro	-14858
▁zdrav	-14859
▁éner	-14860
▁inade	-14861
ksom	-14862
▁任何	-14863
вор	-14864
▁conferences	-14865
▁проекта	-14866
▁당	-14867
▁hvil	-14868
▁serait	-14869
ουλίου	-14870
▁mediante	-14871
▁cara	-14872
aco	-14873
ليات	-14874
▁duid	-14875
▁ordför	-14876
▁pace	-14877
mare	-14878
▁intellectual	-14879
▁快	-14880
▁nast	-14881
▁requirement	-14882
▁commen	-14883
▁hoped	-14884
▁jamais	-14885
▁complicated	-14886
ób	-14887
▁nye	-14888
▁предостав	-14889
▁всё	-14890
ôn	-14891
öra	-14892
▁поче	-14893
▁seconds	-14894
▁warning	-14895
▁接	-14896
▁auditors	-14897
мых	-14898
ológ	-14899
▁feels	-14900
▁mole	-14901
▁обслу	-14902
ounding	-14903
▁photos	-14904
▁проблем	-14905
▁brig	-14906
rain	-14907
ായ	-14908
quelle	-14909
ولاي	-14910
▁accordo	-14911
lock	-14912
▁ци	-14913
lej	-14914
▁saja	-14915
▁çalış	-14916
▁removed	-14917
▁kamp	-14918
▁целью	-14919
▁shadow	-14920
▁mietinn	-14921
▁hå	-14922
▁кита	-14923
▁restaurant	-14924
▁variety	-14925
δει	-14926
בו	-14927
▁threats	-14928
▁mois	-14929
kningen	-14930
▁誰	-14931
اق	-14932
▁glas	-14933
▁sehen	-14934
▁широ	-14935
▁commerce	-14936
▁govor	-14937
▁papa	-14938
▁chicago	-14939
▁severe	-14940
▁उ	-14941
▁要求	-14942
imal	-14943
▁composition	-14944
ët	-14945
หรอ	-14946
▁campo	-14947
▁cultura	-14948
▁الرئيس	-14949
èn	-14950
▁秘书长	-14951
▁太	-14952
▁jeste	-14953
▁европей	-14954
▁rép	-14955
bora	-14956
▁membre	-14957
▁দে	-14958
▁teen	-14959
▁godt	-14960
▁supervision	-14961
nisse	-14962
▁behavior	-14963
žu	-14964
▁יותר	-14965
rét	-14966
▁trend	-14967
▁πως	-14968
▁hvala	-14969
erek	-14970
oked	-14971
▁теле	-14972
▁cambio	-14973
▁adopting	-14974
▁buen	-14975
ственных	-14976
ตัว	-14977
▁panel	-14978
▁法律	-14979
▁unos	-14980
▁guaranteed	-14981
▁bird	-14982
▁международной	-14983
▁87	-14984
▁dimin	-14985
▁vem	-14986
▁blevet	-14987
▁disasters	-14988
▁pública	-14989
▁primeira	-14990
gå	-14991
▁учреждения	-14992
▁שי	-14993
▁יודע	-14994
▁vraag	-14995
▁idiot	-14996
▁frances	-14997
▁engage	-14998
▁geç	-14999
kra	-15000
▁dirett	-15001
сни	-15002
▁ambient	-15003
▁arbeits	-15004
▁bist	-15005
▁films	-15006
▁根据	-15007
vier	-15008
▁venezuela	-15009
▁través	-15010
fica	-15011
▁zod	-15012
ulous	-15013
▁الض	-15014
▁población	-15015
▁oui	-15016
▁voida	-15017
arem	-15018
▁поч	-15019
▁̣	-15020
šie	-15021
▁jedn	-15022
utto	-15023
urg	-15024
▁survey	-15025
▁thi	-15026
acco	-15027
▁bürger	-15028
ică	-15029
▁cree	-15030
гна	-15031
▁maintenant	-15032
▁replace	-15033
johta	-15034
▁certo	-15035
iders	-15036
зиден	-15037
จาก	-15038
▁invite	-15039
▁rất	-15040
iare	-15041
▁laten	-15042
علومات	-15043
▁televis	-15044
▁maks	-15045
тите	-15046
itse	-15047
jung	-15048
▁请	-15049
order	-15050
▁ませ	-15051
íme	-15052
▁luxembourg	-15053
▁journalists	-15054
▁turqu	-15055
▁chied	-15056
▁iş	-15057
▁diag	-15058
▁nhiều	-15059
▁たち	-15060
▁communist	-15061
ệt	-15062
▁agit	-15063
▁например	-15064
▁emper	-15065
▁만	-15066
▁reglament	-15067
▁mús	-15068
▁همين	-15069
▁ash	-15070
▁kry	-15071
16	-15072
▁unct	-15073
▁exerc	-15074
wnie	-15075
akukan	-15076
▁νομ	-15077
▁organised	-15078
▁tackle	-15079
▁aga	-15080
▁tiế	-15081
▁reag	-15082
▁eing	-15083
▁surveill	-15084
▁permission	-15085
▁gjort	-15086
▁でき	-15087
▁	-15088
▁kjo	-15089
▁hart	-15090
▁infant	-15091
▁probable	-15092
▁yaş	-15093
▁beings	-15094
▁õig	-15095
▁paese	-15096
ņem	-15097
▁83	-15098
▁المس	-15099
▁accep	-15100
▁sì	-15101
▁tehd	-15102
ilst	-15103
▁európ	-15104
▁людей	-15105
▁entwicklung	-15106
ittaa	-15107
ojn	-15108
▁تقرير	-15109
▁asht	-15110
▁francisco	-15111
rà	-15112
▁hade	-15113
▁αφορά	-15114
▁zach	-15115
kson	-15116
▁muchas	-15117
▁lum	-15118
▁houses	-15119
▁าย	-15120
nea	-15121
▁ندار	-15122
جات	-15123
▁tratt	-15124
▁scri	-15125
▁подо	-15126
▁krij	-15127
▁denk	-15128
▁כא	-15129
▁qua	-15130
▁frente	-15131
▁pis	-15132
▁inher	-15133
▁performed	-15134
▁evolution	-15135
▁куль	-15136
িত	-15137
▁actuelle	-15138
▁unctad	-15139
нные	-15140
▁себя	-15141
▁lissabon	-15142
▁rozhod	-15143
▁marketing	-15144
▁queste	-15145
▁solicit	-15146
íš	-15147
▁potreb	-15148
▁adjustment	-15149
▁ليس	-15150
▁letz	-15151
▁lle	-15152
▁coordinated	-15153
▁begins	-15154
▁1983	-15155
▁ratification	-15156
usted	-15157
▁próx	-15158
▁internacionales	-15159
▁aún	-15160
▁cidad	-15161
▁može	-15162
▁enth	-15163
گاه	-15164
▁unido	-15165
▁entonces	-15166
bourg	-15167
▁chaque	-15168
▁sillä	-15169
fortable	-15170
▁säker	-15171
hens	-15172
▁vilket	-15173
вари	-15174
▁pubblic	-15175
▁thirdly	-15176
▁zien	-15177
.30	-15178
forslag	-15179
▁editor	-15180
στό	-15181
▁déf	-15182
être	-15183
▁還	-15184
▁όλ	-15185
ıs	-15186
▁vod	-15187
▁βο	-15188
▁abril	-15189
▁bö	-15190
▁разде	-15191
▁canc	-15192
مون	-15193
▁procéd	-15194
▁audience	-15195
нитар	-15196
▁stocks	-15197
▁smes	-15198
▁mayoría	-15199
▁бли	-15200
▁define	-15201
▁esos	-15202
ajú	-15203
gev	-15204
γε	-15205
кий	-15206
кты	-15207
▁maintaining	-15208
▁vall	-15209
ussa	-15210
πά	-15211
▁rappres	-15212
▁heaven	-15213
στή	-15214
▁chris	-15215
луч	-15216
σαι	-15217
вших	-15218
▁kein	-15219
▁organs	-15220
cimento	-15221
▁δυνα	-15222
▁производ	-15223
▁relatives	-15224
▁guns	-15225
▁moyen	-15226
kop	-15227
▁έτσι	-15228
▁חו	-15229
▁alcuni	-15230
▁missed	-15231
▁cualquier	-15232
טי	-15233
член	-15234
▁prv	-15235
▁vys	-15236
▁respected	-15237
▁tage	-15238
▁dik	-15239
ondere	-15240
▁steun	-15241
▁自己	-15242
itage	-15243
▁тя	-15244
wad	-15245
▁حالا	-15246
▁kohta	-15247
▁apare	-15248
rets	-15249
▁espero	-15250
เพ	-15251
▁hlas	-15252
▁dump	-15253
▁heat	-15254
▁åtg	-15255
▁exports	-15256
▁ευρωπαϊκή	-15257
▁benefic	-15258
▁segurança	-15259
▁anders	-15260
▁driver	-15261
▁този	-15262
▁kuwa	-15263
ập	-15264
▁ngos	-15265
▁даже	-15266
▁exceed	-15267
▁rapidly	-15268
fir	-15269
enth	-15270
لی	-15271
▁pitä	-15272
عين	-15273
▁asistencia	-15274
stva	-15275
▁niños	-15276
час	-15277
▁ór	-15278
▁neutral	-15279
▁talent	-15280
▁研究	-15281
▁mim	-15282
▁περιο	-15283
▁thorough	-15284
тор	-15285
▁cort	-15286
▁experiences	-15287
▁interpre	-15288
▁tätä	-15289
ētā	-15290
▁美国	-15291
ault	-15292
▁ere	-15293
▁الاجتما	-15294
▁interno	-15295
▁resistance	-15296
▁кла	-15297
▁πάν	-15298
▁noise	-15299
▁drinking	-15300
otros	-15301
alen	-15302
▁τρό	-15303
▁sf	-15304
▁telephone	-15305
▁sche	-15306
▁чове	-15307
тельных	-15308
▁让	-15309
▁står	-15310
▁oblasti	-15311
▁transit	-15312
▁diciembre	-15313
▁rik	-15314
▁اس	-15315
▁creative	-15316
▁punishment	-15317
▁explanation	-15318
▁кој	-15319
▁мар	-15320
▁کنه	-15321
▁alright	-15322
▁führ	-15323
loss	-15324
▁presidential	-15325
▁республики	-15326
▁tvo	-15327
лизации	-15328
▁nig	-15329
▁لأن	-15330
▁yell	-15331
καν	-15332
bul	-15333
▁amerika	-15334
▁duhet	-15335
▁течение	-15336
▁gruppo	-15337
▁учрежд	-15338
кви	-15339
▁subsequent	-15340
▁tac	-15341
orr	-15342
▁采取	-15343
europe	-15344
▁shel	-15345
▁estre	-15346
▁вопросу	-15347
aland	-15348
▁channel	-15349
▁intervent	-15350
▁сака	-15351
attle	-15352
▁weapon	-15353
▁atte	-15354
▁macht	-15355
▁abd	-15356
▁många	-15357
▁topic	-15358
θν	-15359
▁ميتون	-15360
bek	-15361
▁marg	-15362
▁nacionales	-15363
▁doel	-15364
▁assets	-15365
▁amongst	-15366
alities	-15367
▁tari	-15368
▁elsewhere	-15369
water	-15370
▁का	-15371
▁république	-15372
ston	-15373
▁pregn	-15374
rukt	-15375
▁erh	-15376
▁pem	-15377
▁erkl	-15378
ωση	-15379
▁auß	-15380
ξύ	-15381
▁海	-15382
▁første	-15383
ющими	-15384
▁prosec	-15385
▁kunna	-15386
mail	-15387
▁seis	-15388
сят	-15389
▁nám	-15390
ût	-15391
iad	-15392
▁prompt	-15393
▁shumë	-15394
▁კ	-15395
▁ofic	-15396
▁zeggen	-15397
▁aviation	-15398
entemente	-15399
ijan	-15400
▁teaching	-15401
êu	-15402
▁largo	-15403
▁ал	-15404
▁расходов	-15405
▁экспе	-15406
▁希	-15407
▁్	-15408
▁mennesker	-15409
▁verfü	-15410
زه	-15411
▁этим	-15412
гно	-15413
bez	-15414
illo	-15415
17	-15416
weg	-15417
▁1978	-15418
terna	-15419
▁fak	-15420
▁robot	-15421
▁onto	-15422
▁mau	-15423
▁أد	-15424
▁santé	-15425
▁lock	-15426
▁besoin	-15427
▁ए	-15428
üh	-15429
▁1981	-15430
▁größ	-15431
▁schul	-15432
▁dai	-15433
▁poh	-15434
nú	-15435
▁plays	-15436
▁atención	-15437
▁särsk	-15438
ált	-15439
▁nan	-15440
▁เขา	-15441
▁abb	-15442
▁伊	-15443
▁prec	-15444
▁bigger	-15445
▁ему	-15446
▁político	-15447
▁کردم	-15448
▁место	-15449
▁monday	-15450
يدي	-15451
▁salud	-15452
▁contracts	-15453
▁последстви	-15454
▁congo	-15455
▁przed	-15456
▁bearing	-15457
▁jäl	-15458
▁kand	-15459
▁crew	-15460
▁детей	-15461
▁tháng	-15462
▁casi	-15463
▁nisam	-15464
ческим	-15465
▁steve	-15466
bank	-15467
▁whilst	-15468
▁بب	-15469
issent	-15470
▁chuyện	-15471
▁extensive	-15472
พวก	-15473
▁forte	-15474
▁industrie	-15475
dig	-15476
▁jut	-15477
▁kus	-15478
▁laquelle	-15479
▁sige	-15480
▁tarko	-15481
liqu	-15482
▁这个	-15483
▁jonka	-15484
▁claimed	-15485
▁biztos	-15486
▁macedonia	-15487
umiem	-15488
▁ї	-15489
▁fiz	-15490
▁তু	-15491
рах	-15492
▁comport	-15493
▁waters	-15494
▁относи	-15495
sko	-15496
▁	-15497
▁hungarian	-15498
хран	-15499
▁~	-15500
scale	-15501
skab	-15502
▁εε	-15503
▁applicable	-15504
▁perce	-15505
▁padre	-15506
▁chain	-15507
▁vyt	-15508
▁posto	-15509
▁君	-15510
▁accus	-15511
▁još	-15512
▁pana	-15513
▁männ	-15514
fred	-15515
▁envi	-15516
▁деятельность	-15517
▁конф	-15518
▁他們	-15519
وظ	-15520
▁nostro	-15521
▁хотя	-15522
buah	-15523
rzy	-15524
▁forgotten	-15525
▁თ	-15526
▁устойчи	-15527
▁toward	-15528
kou	-15529
▁znam	-15530
liš	-15531
cit	-15532
▁nosso	-15533
▁impose	-15534
▁sergeant	-15535
▁új	-15536
▁puis	-15537
▁medios	-15538
▁σή	-15539
,500	-15540
сом	-15541
angen	-15542
▁являются	-15543
כם	-15544
▁stressed	-15545
▁strengthened	-15546
▁серь	-15547
▁tis	-15548
▁acces	-15549
▁entsch	-15550
▁mcc	-15551
▁آخر	-15552
▁während	-15553
▁quelques	-15554
▁disag	-15555
▁offent	-15556
▁navig	-15557
quis	-15558
▁ari	-15559
▁orch	-15560
▁jeff	-15561
▁asem	-15562
▁تج	-15563
cciones	-15564
▁surveillance	-15565
uli	-15566
фа	-15567
▁silence	-15568
▁norway	-15569
▁lige	-15570
лам	-15571
▁labai	-15572
▁ljudi	-15573
▁songs	-15574
▁civili	-15575
▁לש	-15576
▁jangan	-15577
▁beauty	-15578
▁він	-15579
▁seura	-15580
šta	-15581
▁komisija	-15582
▁citoyens	-15583
pse	-15584
▁beni	-15585
κολ	-15586
▁bizotts	-15587
▁день	-15588
▁satur	-15589
▁statistical	-15590
▁etats	-15591
▁drunk	-15592
▁участ	-15593
צי	-15594
▁erg	-15595
▁daten	-15596
▁metal	-15597
▁falta	-15598
▁foarte	-15599
▁sarà	-15600
▁patri	-15601
▁quem	-15602
▁בס	-15603
دمات	-15604
▁según	-15605
▁理事会	-15606
rey	-15607
ému	-15608
▁sebuah	-15609
▁мэ	-15610
▁نش	-15611
▁betænkning	-15612
מש	-15613
▁выбо	-15614
▁pertin	-15615
▁grote	-15616
ichten	-15617
▁welcomes	-15618
▁tren	-15619
▁sais	-15620
▁пози	-15621
▁panie	-15622
ography	-15623
▁algunas	-15624
▁νο	-15625
▁мі	-15626
▁добре	-15627
▁закон	-15628
▁cittadini	-15629
▁trem	-15630
▁obiett	-15631
▁dispute	-15632
▁virus	-15633
▁electr	-15634
▁nostra	-15635
سين	-15636
▁一些	-15637
▁terug	-15638
iev	-15639
▁технологи	-15640
▁opposite	-15641
▁dafür	-15642
▁outer	-15643
▁congratulations	-15644
▁dak	-15645
▁한	-15646
ţii	-15647
▁председателя	-15648
▁friendly	-15649
صة	-15650
▁savoir	-15651
▁ied	-15652
▁сообще	-15653
▁мето	-15654
elj	-15655
iliation	-15656
eted	-15657
▁μεταξύ	-15658
zw	-15659
▁1945	-15660
τρ	-15661
▁значение	-15662
bled	-15663
▁σχέ	-15664
▁статьи	-15665
rez	-15666
▁γιατί	-15667
▁會	-15668
κρι	-15669
▁realized	-15670
ittäin	-15671
خدام	-15672
μένα	-15673
んな	-15674
▁недо	-15675
▁podem	-15676
▁ट	-15677
▁leben	-15678
▁chiar	-15679
ساس	-15680
ība	-15681
łam	-15682
▁কি	-15683
▁paint	-15684
tieth	-15685
▁begun	-15686
▁金	-15687
▁qued	-15688
▁ника	-15689
endas	-15690
▁cigare	-15691
вым	-15692
18	-15693
▁législ	-15694
▁objetivo	-15695
itaria	-15696
▁必要	-15697
akah	-15698
یر	-15699
nö	-15700
zerland	-15701
▁subsidies	-15702
inter	-15703
▁nếu	-15704
▁grav	-15705
▁estad	-15706
▁baron	-15707
▁kost	-15708
тие	-15709
▁extraordinary	-15710
▁erad	-15711
бре	-15712
▁cabo	-15713
حاد	-15714
yon	-15715
▁oni	-15716
▁våra	-15717
▁communauté	-15718
▁sagt	-15719
▁visual	-15720
▁debemos	-15721
מן	-15722
деб	-15723
▁خوش	-15724
æe	-15725
▁desper	-15726
▁rằng	-15727
▁ait	-15728
هي	-15729
cting	-15730
вле	-15731
▁kada	-15732
▁tür	-15733
▁coleg	-15734
▁alde	-15735
▁jail	-15736
▁trees	-15737
▁shortly	-15738
▁genoc	-15739
▁رئيس	-15740
▁smoke	-15741
ελ	-15742
▁hau	-15743
шта	-15744
▁wow	-15745
eline	-15746
▁switzerland	-15747
اش	-15748
-00	-15749
komen	-15750
▁εσ	-15751
▁男	-15752
▁anterior	-15753
▁дополнитель	-15754
▁representation	-15755
regional	-15756
▁види	-15757
mination	-15758
▁wollen	-15759
▁коро	-15760
▁результате	-15761
▁hei	-15762
▁restor	-15763
éria	-15764
▁democr	-15765
mond	-15766
rafo	-15767
▁situação	-15768
ولة	-15769
▁ď	-15770
▁يق	-15771
▁camps	-15772
▁gør	-15773
▁então	-15774
▁投	-15775
▁contrad	-15776
▁publi	-15777
ordan	-15778
▁wissen	-15779
انيا	-15780
icação	-15781
ющиеся	-15782
▁corps	-15783
▁apparently	-15784
▁nosotros	-15785
til	-15786
▁trick	-15787
itev	-15788
▁interim	-15789
▁constantly	-15790
▁håll	-15791
▁seorang	-15792
▁laik	-15793
▁pieces	-15794
ading	-15795
▁борь	-15796
▁cai	-15797
▁favorite	-15798
▁就是	-15799
ριο	-15800
щую	-15801
فل	-15802
▁commissario	-15803
رج	-15804
▁sangat	-15805
حدث	-15806
▁랢	-15807
antal	-15808
▁bic	-15809
▁разбира	-15810
▁bardzo	-15811
▁stratég	-15812
▁лица	-15813
▁contrast	-15814
▁grew	-15815
▁hela	-15816
▁προβ	-15817
بية	-15818
▁zeer	-15819
▁proprio	-15820
▁hitler	-15821
▁prelimin	-15822
วิ	-15823
ťa	-15824
emes	-15825
▁tau	-15826
iferation	-15827
شرين	-15828
▁näin	-15829
▁sending	-15830
ications	-15831
jai	-15832
▁foss	-15833
aal	-15834
▁inol	-15835
fø	-15836
iaal	-15837
▁poate	-15838
▁nichts	-15839
▁ønsk	-15840
▁agosto	-15841
▁sher	-15842
▁лишь	-15843
▁mám	-15844
bin	-15845
▁paras	-15846
▁كانون	-15847
리고	-15848
ската	-15849
uns	-15850
owania	-15851
▁mål	-15852
▁öss	-15853
▁baga	-15854
uled	-15855
▁abroad	-15856
пло	-15857
▁культу	-15858
▁rank	-15859
ož	-15860
▁inspection	-15861
▁لو	-15862
▁foto	-15863
ièrement	-15864
▁vero	-15865
täm	-15866
▁condiciones	-15867
▁ära	-15868
▁neden	-15869
רים	-15870
▁shoes	-15871
скую	-15872
▁mär	-15873
asz	-15874
owych	-15875
▁mów	-15876
ركز	-15877
▁divided	-15878
▁fælles	-15879
▁нај	-15880
▁moder	-15881
hne	-15882
ना	-15883
▁реши	-15884
komst	-15885
▁всички	-15886
▁finger	-15887
▁není	-15888
▁unde	-15889
dr	-15890
▁儿童	-15891
▁správ	-15892
uttaa	-15893
▁ling	-15894
▁dab	-15895
يني	-15896
▁myster	-15897
γον	-15898
▁gerç	-15899
▁einige	-15900
μφ	-15901
χαν	-15902
irse	-15903
▁документа	-15904
▁valsty	-15905
▁successfully	-15906
aug	-15907
▁thì	-15908
ποί	-15909
▁אל	-15910
▁preser	-15911
▁demonstrate	-15912
ีก	-15913
▁око	-15914
▁occasions	-15915
▁commissaire	-15916
▁façon	-15917
▁рай	-15918
▁arra	-15919
inya	-15920
▁transmit	-15921
ετε	-15922
▁fordi	-15923
anske	-15924
▁pied	-15925
▁odd	-15926
▁powied	-15927
▁symp	-15928
▁kort	-15929
▁första	-15930
▁verte	-15931
free	-15932
▁服	-15933
▁observation	-15934
▁denen	-15935
▁darauf	-15936
дия	-15937
▁breakfast	-15938
▁infect	-15939
▁לפ	-15940
نم	-15941
▁essentially	-15942
zion	-15943
▁teachers	-15944
obil	-15945
ولايات	-15946
ství	-15947
▁hatte	-15948
▁namen	-15949
▁indispens	-15950
zeug	-15951
gno	-15952
stra	-15953
▁είμαι	-15954
▁بالم	-15955
مهورية	-15956
▁judg	-15957
▁palab	-15958
bilir	-15959
anstalt	-15960
▁quale	-15961
▁fate	-15962
▁biolog	-15963
▁сейчас	-15964
▁bih	-15965
▁международных	-15966
isuus	-15967
ването	-15968
▁khác	-15969
▁somewhat	-15970
▁nomin	-15971
vist	-15972
▁increases	-15973
▁помощь	-15974
gew	-15975
▁ہ	-15976
▁household	-15977
ucht	-15978
▁preventing	-15979
odes	-15980
ortion	-15981
▁fashion	-15982
style	-15983
▁proporcion	-15984
▁предпри	-15985
▁cycle	-15986
▁오	-15987
▁controlled	-15988
▁μην	-15989
▁fatt	-15990
рд	-15991
▁rov	-15992
▁tengo	-15993
uru	-15994
point	-15995
ographic	-15996
▁iets	-15997
▁résult	-15998
▁accordingly	-15999
▁spos	-16000
▁acción	-16001
▁thurs	-16002
▁marzo	-16003
▁joy	-16004
▁durant	-16005
urezza	-16006
▁lingu	-16007
aż	-16008
ρει	-16009
▁texas	-16010
▁corte	-16011
mee	-16012
▁át	-16013
indre	-16014
▁inoltre	-16015
▁oraz	-16016
▁無	-16017
▁något	-16018
oksi	-16019
pez	-16020
šk	-16021
▁1975	-16022
▁две	-16023
illet	-16024
▁falling	-16025
▁независи	-16026
▁mungkin	-16027
edy	-16028
blin	-16029
▁hari	-16030
▁conjunto	-16031
▁ψ	-16032
سك	-16033
▁prix	-16034
▁ung	-16035
▁morocco	-16036
ندا	-16037
▁выполн	-16038
▁sara	-16039
▁পর	-16040
▁sunday	-16041
▁lande	-16042
πτυ	-16043
▁crises	-16044
▁една	-16045
▁цели	-16046
▁acceler	-16047
▁contest	-16048
▁комиссия	-16049
▁liquid	-16050
▁defense	-16051
▁особенно	-16052
▁mong	-16053
roš	-16054
▁swear	-16055
▁마	-16056
ริง	-16057
шению	-16058
rations	-16059
▁substance	-16060
▁calend	-16061
▁infer	-16062
▁effektiv	-16063
▁jat	-16064
▁prosecut	-16065
ância	-16066
▁čia	-16067
čne	-16068
▁εγ	-16069
▁поэ	-16070
▁sharing	-16071
▁gestion	-16072
▁tarkist	-16073
▁fert	-16074
▁unternehmen	-16075
годня	-16076
otti	-16077
▁quelle	-16078
▁beer	-16079
etzt	-16080
ppi	-16081
▁documento	-16082
▁아니	-16083
▁samt	-16084
▁hopes	-16085
ği	-16086
pala	-16087
σμα	-16088
▁aprob	-16089
chts	-16090
zeich	-16091
▁constitute	-16092
▁plenty	-16093
▁переда	-16094
▁lát	-16095
しょ	-16096
▁促	-16097
▁запо	-16098
▁preocup	-16099
▁lange	-16100
▁消	-16101
▁común	-16102
▁reaffir	-16103
▁vec	-16104
▁сегодня	-16105
▁обществ	-16106
▁ľud	-16107
▁insuff	-16108
▁groot	-16109
▁determination	-16110
▁beit	-16111
▁mikä	-16112
▁المجلس	-16113
icing	-16114
▁sozial	-16115
tur	-16116
שהו	-16117
▁motivo	-16118
▁erre	-16119
▁чрез	-16120
▁ayuda	-16121
ije	-16122
▁κάπο	-16123
▁fals	-16124
issant	-16125
ισμό	-16126
▁studied	-16127
25	-16128
ัด	-16129
▁pourrait	-16130
▁appreciation	-16131
▁ग	-16132
▁mielest	-16133
▁بالن	-16134
▁מח	-16135
φέρ	-16136
šanas	-16137
▁centrale	-16138
▁мл	-16139
▁vigil	-16140
▁moscow	-16141
ētu	-16142
▁støtte	-16143
▁recomend	-16144
▁swo	-16145
եր	-16146
▁documentation	-16147
lou	-16148
▁expectations	-16149
▁£	-16150
▁transm	-16151
øde	-16152
▁malta	-16153
▁grab	-16154
ási	-16155
▁recu	-16156
pay	-16157
▁väga	-16158
▁داري	-16159
▁cosas	-16160
▁credibility	-16161
isem	-16162
cupa	-16163
▁arts	-16164
▁resultados	-16165
▁deficit	-16166
kil	-16167
▁frequently	-16168
▁დ	-16169
▁nagyon	-16170
рна	-16171
▁appel	-16172
▁aix	-16173
▁seas	-16174
▁때	-16175
▁fought	-16176
▁copy	-16177
▁atrav	-16178
▁wäre	-16179
▁behaviour	-16180
▁mét	-16181
▁inadequ	-16182
▁й	-16183
▁obtained	-16184
рко	-16185
▁gren	-16186
▁区域	-16187
werk	-16188
▁kenya	-16189
aszt	-16190
▁åter	-16191
▁zuk	-16192
▁cargo	-16193
omis	-16194
тыва	-16195
▁effet	-16196
▁conting	-16197
▁intégr	-16198
itatea	-16199
▁уго	-16200
pit	-16201
▁aps	-16202
ريد	-16203
▁rav	-16204
▁بص	-16205
▁respu	-16206
▁nest	-16207
▁суда	-16208
stad	-16209
▁ombudsman	-16210
▁cease	-16211
icion	-16212
▁dnes	-16213
▁technique	-16214
▁guid	-16215
▁entscheid	-16216
▁структу	-16217
▁každ	-16218
▁einfach	-16219
▁знам	-16220
▁тази	-16221
▁thứ	-16222
▁imprison	-16223
▁två	-16224
▁décembre	-16225
▁verm	-16226
▁restructuring	-16227
▁着	-16228
▁resolved	-16229
wod	-16230
▁ingin	-16231
fit	-16232
▁doctors	-16233
▁candidates	-16234
▁wirklich	-16235
▁1974	-16236
▁traité	-16237
oler	-16238
▁ron	-16239
▁whereas	-16240
alle	-16241
ссий	-16242
▁crist	-16243
▁ej	-16244
lined	-16245
[...]
